node {
  name: "random_normal/shape"
  op: "Const"
  attr {
    key: "dtype"
    value {
      type: DT_INT32
    }
  }
  attr {
    key: "value"
    value {
      tensor {
        dtype: DT_INT32
        tensor_shape {
          dim {
            size: 2
          }
        }
        tensor_content: "@\000\000\000\002\000\000\000"
      }
    }
  }
}
node {
  name: "random_normal/mean"
  op: "Const"
  attr {
    key: "dtype"
    value {
      type: DT_FLOAT
    }
  }
  attr {
    key: "value"
    value {
      tensor {
        dtype: DT_FLOAT
        tensor_shape {
        }
        float_val: 0.0
      }
    }
  }
}
node {
  name: "random_normal/stddev"
  op: "Const"
  attr {
    key: "dtype"
    value {
      type: DT_FLOAT
    }
  }
  attr {
    key: "value"
    value {
      tensor {
        dtype: DT_FLOAT
        tensor_shape {
        }
        float_val: 1.0
      }
    }
  }
}
node {
  name: "random_normal/RandomStandardNormal"
  op: "RandomStandardNormal"
  input: "random_normal/shape"
  attr {
    key: "T"
    value {
      type: DT_INT32
    }
  }
  attr {
    key: "dtype"
    value {
      type: DT_FLOAT
    }
  }
  attr {
    key: "seed"
    value {
      i: 0
    }
  }
  attr {
    key: "seed2"
    value {
      i: 0
    }
  }
}
node {
  name: "random_normal/mul"
  op: "Mul"
  input: "random_normal/RandomStandardNormal"
  input: "random_normal/stddev"
  attr {
    key: "T"
    value {
      type: DT_FLOAT
    }
  }
}
node {
  name: "random_normal"
  op: "Add"
  input: "random_normal/mul"
  input: "random_normal/mean"
  attr {
    key: "T"
    value {
      type: DT_FLOAT
    }
  }
}
node {
  name: "Variable"
  op: "Const"
  attr {
    key: "dtype"
    value {
      type: DT_FLOAT
    }
  }
  attr {
    key: "value"
    value {
      tensor {
        dtype: DT_FLOAT
        tensor_shape {
          dim {
            size: 64
          }
          dim {
            size: 2
          }
        }
        tensor_content: "\030\n\237?3\352\236>`d.\277h\220\031?\211\210\201\276\300\340\005?\235\224\257?<\353\360>\225\276\362>\352\320\312\277r\205U?\250\260\014\277\373\253\262\275\244\215\016\277\330\025\033\275\272H\337>\355\246@?\323\020\317>\027\271\315\277\366\372\030\300[\035B\277\234\212\260?\003s\027\275N\035\305>\031\014\232\277-?\t\276\251\002z?\221I\037?\234,\017\277\330\377\316=\323\342\212\277?,\231\276\026\333\251?\340\273p\276SO\332>\355`\370\276c/\276>\374v\247>\177y\315?\274<\027\277\237.Q\277\017,\254?t\272\325>\207ry\277\242\310\036\300\252Q\006?\367\035\017?\016\341\203>\246X\366?\273u\333?\267\301\365?X8\313=Z\n\003>\307h\234\277\333W\253\276V\377I\277\245\342\031>\014I1\277 <\244>\217-\367\277Z\260*>h\324\354\277\275\303\206?t\t\304\277\276&\300\277\303d\217?\024\033f<\217\327\215\277e\311\222?\302;\330\277*\355\234\277\350\257\206=A\332,\277;\3008?\315\265\235>\003\257\022\277BfG\276\307\311\215>\324o\347>\"\335\002\2777\362\305?\262\032\247\277}\310B\277\202i\267\277N\211\217?\236\027\022>\023\216\223\277]\370\356\277 k\034?`\257\260\277\355\n\215?\275\t\246\275\327+\350?\247?]\277]\022\234\276_W\177?\262\023\310>5\345\000\276\223\342H>+a\345>\264\377\216?\353h,\276d\201v\277\364\004\375>\277\243\242?y\347\217?\"]\214?C{~?\257yR<\222\317_>\235\271U\300x\256\353?\326\353\207\277\341\361f\277\200\033\001?a\322p\277\2257\245\277\232\332\230\277&;\251?\307\303>>\363\000e?\314zX\277-\033\346>\035\212A\277\223\026\227\276#\317e<\276\301\210>\034\225K?"
      }
    }
  }
}
node {
  name: "Variable/Assign"
  op: "Assign"
  input: "Variable"
  input: "random_normal"
  attr {
    key: "T"
    value {
      type: DT_FLOAT
    }
  }
  attr {
    key: "_class"
    value {
      list {
        s: "loc:@Variable"
      }
    }
  }
  attr {
    key: "use_locking"
    value {
      b: true
    }
  }
  attr {
    key: "validate_shape"
    value {
      b: true
    }
  }
}
node {
  name: "random_normal_1/shape"
  op: "Const"
  attr {
    key: "dtype"
    value {
      type: DT_INT32
    }
  }
  attr {
    key: "value"
    value {
      tensor {
        dtype: DT_INT32
        tensor_shape {
          dim {
            size: 1
          }
        }
        int_val: 2
      }
    }
  }
}
node {
  name: "random_normal_1/mean"
  op: "Const"
  attr {
    key: "dtype"
    value {
      type: DT_FLOAT
    }
  }
  attr {
    key: "value"
    value {
      tensor {
        dtype: DT_FLOAT
        tensor_shape {
        }
        float_val: 0.0
      }
    }
  }
}
node {
  name: "random_normal_1/stddev"
  op: "Const"
  attr {
    key: "dtype"
    value {
      type: DT_FLOAT
    }
  }
  attr {
    key: "value"
    value {
      tensor {
        dtype: DT_FLOAT
        tensor_shape {
        }
        float_val: 1.0
      }
    }
  }
}
node {
  name: "random_normal_1/RandomStandardNormal"
  op: "RandomStandardNormal"
  input: "random_normal_1/shape"
  attr {
    key: "T"
    value {
      type: DT_INT32
    }
  }
  attr {
    key: "dtype"
    value {
      type: DT_FLOAT
    }
  }
  attr {
    key: "seed"
    value {
      i: 0
    }
  }
  attr {
    key: "seed2"
    value {
      i: 0
    }
  }
}
node {
  name: "random_normal_1/mul"
  op: "Mul"
  input: "random_normal_1/RandomStandardNormal"
  input: "random_normal_1/stddev"
  attr {
    key: "T"
    value {
      type: DT_FLOAT
    }
  }
}
node {
  name: "random_normal_1"
  op: "Add"
  input: "random_normal_1/mul"
  input: "random_normal_1/mean"
  attr {
    key: "T"
    value {
      type: DT_FLOAT
    }
  }
}
node {
  name: "Variable_1"
  op: "Const"
  attr {
    key: "dtype"
    value {
      type: DT_FLOAT
    }
  }
  attr {
    key: "value"
    value {
      tensor {
        dtype: DT_FLOAT
        tensor_shape {
          dim {
            size: 2
          }
        }
        tensor_content: "\206\367\236?\346\356\240\276"
      }
    }
  }
}
node {
  name: "Variable_1/Assign"
  op: "Assign"
  input: "Variable_1"
  input: "random_normal_1"
  attr {
    key: "T"
    value {
      type: DT_FLOAT
    }
  }
  attr {
    key: "_class"
    value {
      list {
        s: "loc:@Variable_1"
      }
    }
  }
  attr {
    key: "use_locking"
    value {
      b: true
    }
  }
  attr {
    key: "validate_shape"
    value {
      b: true
    }
  }
}
node {
  name: "rnn/basic_lstm_cell/kernel/Initializer/random_uniform/shape"
  op: "Const"
  attr {
    key: "_class"
    value {
      list {
        s: "loc:@rnn/basic_lstm_cell/kernel"
      }
    }
  }
  attr {
    key: "dtype"
    value {
      type: DT_INT32
    }
  }
  attr {
    key: "value"
    value {
      tensor {
        dtype: DT_INT32
        tensor_shape {
          dim {
            size: 2
          }
        }
        tensor_content: "A\000\000\000\000\001\000\000"
      }
    }
  }
}
node {
  name: "rnn/basic_lstm_cell/kernel/Initializer/random_uniform/min"
  op: "Const"
  attr {
    key: "_class"
    value {
      list {
        s: "loc:@rnn/basic_lstm_cell/kernel"
      }
    }
  }
  attr {
    key: "dtype"
    value {
      type: DT_FLOAT
    }
  }
  attr {
    key: "value"
    value {
      tensor {
        dtype: DT_FLOAT
        tensor_shape {
        }
        float_val: -0.136717185378
      }
    }
  }
}
node {
  name: "rnn/basic_lstm_cell/kernel/Initializer/random_uniform/max"
  op: "Const"
  attr {
    key: "_class"
    value {
      list {
        s: "loc:@rnn/basic_lstm_cell/kernel"
      }
    }
  }
  attr {
    key: "dtype"
    value {
      type: DT_FLOAT
    }
  }
  attr {
    key: "value"
    value {
      tensor {
        dtype: DT_FLOAT
        tensor_shape {
        }
        float_val: 0.136717185378
      }
    }
  }
}
node {
  name: "rnn/basic_lstm_cell/kernel/Initializer/random_uniform/RandomUniform"
  op: "RandomUniform"
  input: "rnn/basic_lstm_cell/kernel/Initializer/random_uniform/shape"
  attr {
    key: "T"
    value {
      type: DT_INT32
    }
  }
  attr {
    key: "_class"
    value {
      list {
        s: "loc:@rnn/basic_lstm_cell/kernel"
      }
    }
  }
  attr {
    key: "dtype"
    value {
      type: DT_FLOAT
    }
  }
  attr {
    key: "seed"
    value {
      i: 0
    }
  }
  attr {
    key: "seed2"
    value {
      i: 0
    }
  }
}
node {
  name: "rnn/basic_lstm_cell/kernel/Initializer/random_uniform/sub"
  op: "Sub"
  input: "rnn/basic_lstm_cell/kernel/Initializer/random_uniform/max"
  input: "rnn/basic_lstm_cell/kernel/Initializer/random_uniform/min"
  attr {
    key: "T"
    value {
      type: DT_FLOAT
    }
  }
  attr {
    key: "_class"
    value {
      list {
        s: "loc:@rnn/basic_lstm_cell/kernel"
      }
    }
  }
}
node {
  name: "rnn/basic_lstm_cell/kernel/Initializer/random_uniform/mul"
  op: "Mul"
  input: "rnn/basic_lstm_cell/kernel/Initializer/random_uniform/RandomUniform"
  input: "rnn/basic_lstm_cell/kernel/Initializer/random_uniform/sub"
  attr {
    key: "T"
    value {
      type: DT_FLOAT
    }
  }
  attr {
    key: "_class"
    value {
      list {
        s: "loc:@rnn/basic_lstm_cell/kernel"
      }
    }
  }
}
node {
  name: "rnn/basic_lstm_cell/kernel/Initializer/random_uniform"
  op: "Add"
  input: "rnn/basic_lstm_cell/kernel/Initializer/random_uniform/mul"
  input: "rnn/basic_lstm_cell/kernel/Initializer/random_uniform/min"
  attr {
    key: "T"
    value {
      type: DT_FLOAT
    }
  }
  attr {
    key: "_class"
    value {
      list {
        s: "loc:@rnn/basic_lstm_cell/kernel"
      }
    }
  }
}
node {
  name: "rnn/basic_lstm_cell/kernel"
  op: "Const"
  attr {
    key: "dtype"
    value {
      type: DT_FLOAT
    }
  }
  attr {
    key: "value"
    value {
      tensor {
        dtype: DT_FLOAT
        tensor_shape {
          dim {
            size: 65
          }
          dim {
            size: 256
          }
        }
        tensor_content: ",b\276=\250\370\230\275\370r\240<\340\240q<\000\211\315;\006\363\254\275\370:\264\274\200\374\266\273Ja\273=\030\206\347=P]\315=\371\022\002>\362\255w\275\310\367\205\275\302\215\351\275\204\327W\275E;\006>\322\276\200=\340\255\362<\000\375y:(\333T=b\026\025\275,\236\270=\314\363\277\275\243~\000>\246\rx\275\2609\203=\3556\001>\300\235\307< +\265\273\200>\251\274\220\345\301\274\250 \326=\024\207\251\275\210w\374<\274\315\233\275@em=\354\034=\275\224\316^\275\250\274\273=\034!\215=\350uC=z?\210=\000\0312<\372\351\007\275\326w\207\275\200o0<S\237\005\276\326\341\326\275\336\252\252=\240\221\331\274\372\250\375=\344W\036=\010\375\301\275@\375\"\274\000@\203\267 \302\n\2740\217\001\274\224@I=D\232\313\275\230f}=>\036\311=\250\215\207=\002\322\311=\247\227\235\275\350\256\371<\010\370\366<\250KW\275\304\036\266=\300TY;\234l8=f\346\227=lO\240=\000h0\271\"\265\321=\364\247\243\274Z\317\323=\262\020@\275\340\237_\274BQ\005\276h4\326=.\035C\275\271\251\003>\322\353\352\275\260\242+<\336@\305=\242o;\275\3161\002\275\264\032\246=\006[\203=X?\004=x\000\217\275LV}=rx\263=\032I\375=4G\367\274\260\203.=\004\371[=0\330\214=t\253\312=\374\231\367\274.\031|\275d\222\360\275\022\366\376=@b\230\275\366\032\241=4\317\341=\250\250\331<\352\030\243=T\204\375\274g\325\010>`\212\251\275\244\210\326\275\214\356\003=\034!\256\274\024\340\315=\002(\251\275E\246\013>f\347\360=d\332\301\275^RQ\275\374\004\204\275\332v\204\275s`\013\276:\331\221=>\336\226=\336#z\275\330n\365\274O\333\221\275p3\235=`\270\001\2760DD=\000\234b:8 \340\275\243\351\345\275\330\355,=\306\\\211=D!0=\340\205\224\273\032|\362=\266/:\275\340\371\\\274Z=\221=,\262\026=\300\313\331;\250r\222\275\000`z<\0000\245\273N\224\201=\232\350\312\275\260y8<\036E\246=\200\272\003<\252\375@\275p\024-=\355\267\010>\264\327g=\272\345\017\275*\212\246=Z\341\233=\362\373\372=$\312j=:\263\233\275\355\026\246\275\000JP<\016&\350=\300\321\033;,\300\223\274Gf\277\275\265\340\007\276Z:\376=B\002\331=\376N\361\275`\351<<\360v%< \244\240<,\304A\275\374\257\342\275,\026\317\275\366F\345\275\212\305\330\275\241\231\006>F\034\211=\372\204c\275/\253\002\276\300\321H\274\213\010\005\276@|d<2y\350\275\250\337)=\264.\272=?\205\205\275\220\206\303<0NE<\374\263\306\275\343d\275\275\030\253\376\275\234\352\276\274\300\025H=h\024\263<\262\353\247\275;6\223\275h\276,\275\200P\236:x\337\351\274`\255}=\301\337\006\276\332S\312=\200t\273\275&(\302\275\300\272V;\010\004\377<P\304B\275\200\321\321;\004\232S\275\342\241\212\275#\203\317\275p\2566\274z:\320=\321\304\001>\3633\t>\000\252C;\032\313\375\275\336%\233=\000W\323\272\204\346\204\275\312z)\275\006+\270=\306\335\274=h\377o\275*H\255\275\353\027\002>\022\004\302\275R\323\354\275\270\210\336=\360x\n\276@/3\273\330\031\301<`O\221\274:@\030\275\212v\237=\312\036\304=\340\232\246;|\360\026=\226X\334\275:-\246=\314=\352\275\004\230\223\275P\273h\274\202\214g\275\226\200\222=W\245\007>\264\264v=J\"\324=\320}$=\204\013.\275\276VQ\275\226\247\244\275\254\303\000\275{\321\305\275\242\275\003\276+\273\001>@\3551\273\221\325\250\275P\362F<\000g\242:L\037\245\275\360\221\264<\2763\304=\370\352\360<\3562k\275\036\353\213\275\364?\316=\222\351\240=\366}\007\276|\303{=<C\215=\000\003l\274p\002@=2\232\263\275\354\3029\275\215\"\213\275c)\004>\244/\225=s\365\370\275\3028e\275\310Ie\275\230\244\005=\026\221\347=:\217\365\275\206\301\206=@\301$\2743\364\245\275\304\264\203\275\266n\375\275`\025\341;\3022\366=\370\307V\274\240\264U\274n\303O\275\340\212\365<\'\375\274\275,)\201\275\250^\312<\316\377\350=D\332v=\214{\300\274\244q-=P\245\022<XQ\346\274\252\215~\275\326\334\010\276\364\220\313=!:\006>\240]\004\275>{\375=\367\217\000>x\325\244\275\334\204%=4\346\031=\216s\357=\262,\324\275\212)\327=\202\361\251=\270s\024\275\004\263\236\275\240\321\203<\340%\266=\230P\200\275\004\355\322\275\234Vi\275\'s\n>\362%\237=\224\265\'=\300\232\242<\246\315\225=}Z\351\275\301S\006>F\225\325=(c\000\275\322\'\014\275 lU=0\206\243=8\177\260=t\177\273\275\250\007\266=\350\344\320=\t\302\257\275>Y\372=\"s\352\275H\222\177=\3064\300\275@\013\332=\034nA\275t\2505\275,\366c\275@\304\t\275t3\277=\340\361\005\274v\022G\275V\223\366=03/<\360\016\261\274 \177\355\275<\303\324=\006\346\372\275\341\356\005>NS\247\275rg\314=yM\210\275\004\317\347=\002\256\215\275\352\026\360=\370\330\216<D\244\300=\030\222\272=:i\023\275\002AF\275\330\t$=\240J\034\275D{\265\275m\373\000>\032e:\275\231W\334\275:\376\001\275\260\t\327=\246i\352=:F\310=\340\274\343;l\201\360\275x2\345=}\237\005>\220\342\225\274\000\212)\272\030\267\251<\222\271\241=\2043\210=\364\214\305\275`\274\016\274\370Y\240=\372\336P\275\230\010{\274\000\320\335=\313\230\271\275\020\271^<\010\274\250\275\2568l\275\366\245\005\276\225\242\013>\010!\234=J\264\203=\000\277\316\273\243\004\005\276\264\'\224=\010\307\252=\024=\t\276\014\\\307=p\203t<\214\313\202\274\346\352\350=\250g\305<N\n\272=>\376\314\275\032\231\321\275\330\363\272<\316\302\357\275B\234\375\275vs^\275\022r\360=$\235\375\2747\206\007>~\273\315\2750\244\037\274\250\304e=\"e\374=|\373\317=6 \354=`\240\345\275\246\032\210\275\370x\261=\366^\356=(6?\275\016u!\275\370\314/=\214zK\275\024\036\244\274H:I=Rz\262=\000g/\274\320\222\344<8\227\320\275\214bn=\350\206\273=lM=\275\356\205\201=\306\371\354=<\002)=\022\367\302\275\230=\270<\013z\t>|B\267\275\242\345\366=.\203\305=*\014E\275\274<\225\274\256=\207=Z\030\306=f*\251=\370\365\263\275<\246\223=/[\001\276\200J\313;`|\216;$\320\373\2748\255\014=\314\316n\2750\244\211\274\332d\261=\270\251\331=\224\0011=dNc=\023;\377\275p\273\277<\236\265}\275 \217\243=\316\005\376\275\337\022\n>\nm\275=\033\007\006>&\215\252=\240\374\\<t\325\030\275+\216\t>\020,\240\275z\311\311=f0\231=\266\001R\275^\021T\2758\246<=\234\271o\275\270\nZ\275\260\323\231<\254p\252=(\266\257<\272\271\234=\366h\213=\235\\\231\275\312o\217=\356;\255\275\242c\r\275zS\234=`\177u\274\226\315\002\276p\201\n<\247,\010>~\370\367=H\314\246=({\313\274\275^\376\275\354X\237\275\220\322Z=\300O&=\362\200\224=M\025\240\275y^\n\276vO!\275\200u\271<\344\224\031=\204\364\335\275i\321\001>\200Q\373;\000r\221=\223\323\361\275\306\036\264=\323\263\362\275\213\372\246\2750\004\255<\364\"P= 32<\234&z=qT\001\276N\022\t\276\310\250T\2758\230\243\275Zm\327\275\006\271\226=\000K\271<\013\334\002>\372\350\212=\033\341\273\275\344\261\024\275\333F\t>\302%\260=Pb\235=P\261\022<\336\215\202=\307r\005>\240\377u=\276\021\375=\262\214\264\275\362\230\001\2760\356\263=\354|\300\275\014\306\226=\204;\231\274\310\333%=N\305\376=\360\220\315\275\324L\177=]\273\003\276\300A\354\273\370\355\271=\300\033\204\2732f\277=@_\241=\356\266\002\275\326(\270=\014;\006=\005\203\247\275\306\230\\\2750\236\244\274*?\230\275\000\'Q\2722\216\233\275^\'\246=\034\re\275|\356\263=\270\251\207\274\"\313`\275\304H\356\275\204\213\234\275$\305\026=TC\t=\342\306\205=\034\323\357\275\022\244\354\275\2447\342\275>\026D\275\211\312\004>.C\301\275\246\236\365=\264\\?=E\247\350\275\360\233.\274\003\027\325\275\340\240\210;\304S\262=\2043k\275\200\016\223;\200F\252\275:f\013\2768\316\005=\356c\270\275\372b\217=\000\312\343\273\370`r\274\360\001N=d\252\340=\240\227\272\274x-y=]~\260\275(\242\004=@\345\317;p!\255\275\003\252\013\276\000(\027<L\014\240\274\300FN;\370\'c\275\270\r&=X\357\302=\014\373\027\275\272\252\236=\254p\222\275\340\322\235;k\331\207\275\034?\350\2750|\316<\322p\333=$\340\234=`\001\377\273\300Qs\275\256\246\275=\360\233\305\275\264\2407\275V\261\242\275\360\004:\274P\357\213<\020hY\274\246\210\323=\200\341\372:&\323\337\275@\267\330=H\221\356<(\226m= \007\336\275\014\327t=\034\036\277\275B\213K\275Mg\225\275<^\200=\2679\252\275\315\270\010>\266<\354\275\000eA\273\352\376\r\275\372\366\330=|\302\210=\021W\013>\226\001\257=X\235\007=<\335\241\275\010_S\274v\245\206\275\314uo=\302/\261=\306\373\006\276X\354A\274f\247\376=\254.3=S\211\000>\364\277/=\320\030]\275n\356\177\275p\222f<\332qS\275\024\354$=\300Z&\275xd\372<\270)\253=\034\374\323\275\352\310\371=\236RT\275\016\022\246=\314a\320\275zR\201=\274bZ=0\031W<\223\335\303\275\325\273\336\275 m\025=\351\036\n\276l8\224\274(\363\216\275\370\266\255<@J\021\273\364\2164=\021\374\312\275`-\336\273\355n\013>\237\315\013>\300\350\351<\t*\001\276\3748\370\274\026\345z\275\252f\203=\000\217\212=(x\263\274*\370\373=\260\035\331<\336\035\242=\304q\300\274\262Y?\275.\277\372=\200Yf;\226$\373=\006V\356=X\255\322=\342\010\365=\3264\255=\014\240\306=\220\235\327\275\nLC\275\274\302\257=h\005\276<\2526\304=NB\212=\312H\360=P4\326<\\\356\240\274\320\025\005\274\220j\210<\253\324\374\275\024.\237\275\210)\302\275i\032\211\275\004\353\031=P\301h=\261\361\001>\210\226\270<<\242y=w\'\353\275H?)=\342\036\345=J\257\352\275\000\370\355\272r\023\320= @\224;\331y\372\275\234g\370\274\270r\245<l\343\010=\340d\235=\3323\323\275\354\270\021\275\300m\340<\271L\003>\252F\235\275\340\356\350;\340\261\266;z\234\310\275B\373\302=\314 \222\275\260\373\237<:\t\000\275\034X\241\275pm\256=\216\024\343=\260\311+<\246\347\322=\3506\005\275\266^\256=\230\240\324=\362K\243\2750\255\227\2742O\265\275\312\243\335=@5,<\244\223B=z\037\306=\321e\004>0m\022=\010e\306\275@\377\211<\302\027\014\275\200\0149\274tFT\275\274h\357\274,\350Z\275\214\330M=\024\263\020\275W\252\000\276\246\202\t\276\220\332=\274\3678\224\2758\240\320<\311C\211\275\274\240\252=\303\264\t>\006\217\314\275\300`\\\274\326\251Q\275\300\270|;\211K\335\275\020\337J=\023T\347\275\244\013\322\275H\255\324=\235\014\215\2758`\207=\t\365\002>\360\361\033\274\360\353\364<\334@n=\214e\200\274 \232\205=\204\270\301\274\210\304\223=e\005\007>\255\353\003\276 \221\342;\212\224\233=\216\365\234=\334%~=\324\361T\275\004\035\227\274\2415\007\276\276\016(\275j\355j\275\0167\t\276\336h\332\275\000A\225\275`\253\t<\302\324\312\275\026\010\007\276`b\333;\374\020\321=\252\326\344=\024\372\307=\306I\221=\334\311\226=<\321\314\274\272\035\254\275\322l\271\275\020\002\032\274\024\222\271=\345\r\000>\356\300\232\275\242+\376=\230\261\251\275\354@\370\274\310\210\002\276\366\362\227\275\201\210\225\275\314\331a\275\330\375\256<\224ar=4\tH=\240\357\346=,\363@=\256\227C\2753\033\007\276Xa\350<\2725\205\275\237\303\277\275n\230\317=\243\374\201\275P\234\367\274\340\355\353\273\306\372\014\275\030A\373\275\264\246\305\275\000k\236=\010\376L=\034\353~\275*y\360=}\220\356\275\300\201a=\0307\271\274\204\335\321\275i\\\013\276\376\273\354=\242\201\371=(\333\327=X\212\344\275b\370\362=\340\225\356\273\334\211\305\275\346F\374=\226\032\264=\307\307\n>\376o|\275\343\250\000>M\274\211\275\331\270\010>\335\354\006>Pp\322<w[\n>.U\210\275P\003\306\274f\002\217=\367\355\007>\014\335\233\275>\016\224\275\3613\006>\304\250X=\300\277\322<\305\246\007>\204\210\275\274  \365\273\300\220\227=\264\'\315\274\020K\321<\344\2554=\240b\377<\350\257\n\276h\367V\274\320\220|<\242|\344=f\277\013\275\300k\360<\312Y\235\275\327\210\360\275P\301h\275p\337\375\275\320\265\255=\247C\001>\027\264\013>\020\333j=&\220\272=\220N\202=z\374s\275\"t\316=\000\225>\272\362E{\275\0206\353<\"\240\307\275\254\342+=\334\014==\200y\302<,\245\250=\000\341\263=M-\t>to\250\275r\312\201\275\2363\351=\324Mx=v\360\204=\364\177\301\275\240\035i<\332^\003\275\252Aj\2754/\032=\224\360Y=\364\341^=\253]\003>\032\346\224=\221\253\005\276@\001\255<\366}\007\276\200W|\273`\013\t\275p\302\024\274\220`\315<\262u\327=\370[s\275\360\334\221<\300\221t<\270\221\304\275\214\035\244=:j\264=:92\275\272\362\366=%\177\005>\222\344\373=\246\347\251=\030\363\222\274\240\204\253;>#\360\275#`\006>\314\216\316\274\344\325\031=H\367\327=X\346&=\322\361\366\275\010-\266\274\214\351\t\276\024mW=,\037\215=\360\375L\275^o\326=xY\211\274a\334\346\275\234\327\303=1\n\004>\224\205<\275Ho\212<\370\343\255=\200\317\356:\350O\233=\0008\274\273`\000S\275RY\276=z\321\233=\022\023t\275<\007\275\275\234\320X=\316N\353\275\250\022Q=`Z\272<X9\370\275(\367\261\274\351\335\352\275\036\341(\275\020\272\211=0\220\345\275\340h`=+\222\222\275\355\262\335\275*\231\245\275\330Qe\275L\237d=&\201\035\275\324\200\274=5\232\t>\315{\007>\244\337y=\324\021\337=:\237\307\275\2222L\275\256\242\374\275\\\"\001\276\016S\327=\000a,<n\035\315=:9\241\275\260\221\r\274V2D\275\300\003\211\274 \033\236\275\270-L\274\213\226\330\275)\306\003>\2461e\275l:\217\275h\375;\275\n\024\212\275\250:\355\274\340\003\376<\320\274\352<\364\t\237=\336\251\334=\216M\374\275\354\376\243=&\234\364=\345:\374\275\234q\342=^\014\305=D\341\024\275\362\376\345=\"\215\006\276\020Lg<\317\320\001>\326<\177\275b\206\373=\346l\206=\264]\007\275\364\034\336=\264\2320=\234|\225=\244}v=\233\224\334\275\006FC\275\332X\331\275\340\032\365;\002\".\275\274>\244=8\314\247=\322{\340\275\272\227\316=\204b\303=\220\227\254=\317\264\004>\000\223I:\356y\327\275\rP\007\276X\014\211=P\213u=\376y\345\275W\203\224\275\371\340\013\276\336p\371=\260\271\224=0\370\341<\360\033\221=\002f\323=b\026\304=f\276A\275$\351\310\274b\343N\275f\t\327\275 <o<\222\334\021\275\340\202\001\274|mI=\301\326\340\275\224\236\317\274)\211\213\275\224n\345=*\273\365\275\021\225\t>\203`\003\276\014\245~=(\033\326\274i\001\276\275\250\272\364<w\216\005>p\337\240=\020\232\232<-\267\t>\\\034P=\326k\231=\032\303\266=*\335\224\275\300\306\254;\220\325\220<!\225\007>t\370\216=\247\216\n>\000\317t:\360\273\360\274T\253O=\032\303\332\275\342\001\273\275\234\366\310\275\000\256>:\264yf\275\374)\335=rA}\275\004kH=\\\317\n\276<}\r=d+\036\275 \017\320;\351\214\003\276\304!h\275\000\300\372\270\000\207\320\274\356\244\350=\010ts=(\213\347\275\206G\353=\224\324\306\275_4\000\276:B\324\275Kr\227\275\210s\004=v\356~\275&\3726\275\346C\354=\006\333i\275\212\364\331=\020x\231<.\255\341\275h\230==F|\000\275L\363\311\275\330Y\245=Bt\256\2758\372\325=\010\354}=0\232\275=P\200i<WR\002>\220\330\230\275.H\355\275\034\240d=\243\312\253\275\230rD\274 \221/\275\210\031\236=\036\356\024\275>+x\275:\004\337\275D\332R\275>\017Q\275,\202\206\2751H\010>d\t\177\275\324\334R=\016o\332=*N\271=\226\357\302\275\236\314\364=B6\344=\234\303G\275\020\206P<\306\300<\275\351\340\233\275ny\337=\302\336\321=\254\256\356\274\034\330\204\275@\202P;~\316\305=\336\030\006\275`\376\263\273P\215\200=\032\t\267=\264\036\234=\330,\274=\340=\325=\312\347\374\275\t\306\373\2754\364F=h\254\330<\000\2018;\237\322\224\275\215\340\001>\200H\355;\304\035P=J\311\262\275\000\362\247\275.\360\251\275N\347\221=6\223\272\275_\243\003>\"O\240\275hY\333=\300\341\335=ku\002\276\340=\262;\270\'\\=\340\n7\274\200\355\201=\344\333A\275\20024\275\000u\224:O\350\270\275\036\365\250=v\003\333=JG\312=\0101\021\275\200A\316;\254\265\234=P\367\027<\310)\247\274l\314\027=\320G%\274p\265\200=\000u\224\272\214\251\251=\270\220\001=Fh\370=@\035\300\273\304\236\302=0/!<\266o\326=D\3273=A\001\340\275\231\357\357\275\034/S=\370\253\333=\214\360\t\276\2629\301\275\202C\273\275@\334\004<\020\272\035\274\256\270\003\276\340\306\247<L\216\224=\330\322\203\2756\325\327=?\253\376\275x)\341<\256Kw\275L\352~=\251E\207\275,\3736\275(\202_=\215~\001>\303c\t>OG\010>\234\303x=\205\211\004>.g\026\275\265\003\010\276\343\316\n>^\317\273\275\234ky=\346$\344\2758\016\t\276\221!\301\275\013\201\003\276\334\234\320=\365\357\007\276tr\346=B\315\304=\364\372$=\340\006\206\2734\372L=xC\213=\360\216H<\327\360\342\275L\372\365\275P\252\025<\230\313\251\274\262\032#\275@!\262<\374\335\302\274Tx\035\275\304\"\002\276\250\276\275\274\336\340\352=\030\331\274\275g\350\257\275<\344\273\275\246\031\227\275\014\360\001=X\352w=\244\312!\275\240\343[=t\221d=$\367\217\275\202J\214=\200\217%;\036`\013\276b\221\363=\320\256u\274\254\343$=\300\236-;h\245\207<FNw\275\366\203\276\275\346O\252=\240\223R=\205%\203\275\204\003[=u\277\000>!)\000>&/\201=\334-\324=\000\000\253\271@n\031\273\320\014\241\275\334\306j=\372^\241=4\035\221\274\200H\372<\020\361p\274\340 \277\273\254\227{=\314\277\306\275\262\035\233\275\300\017\275=\344\371\016\275 HV<<\030\000\275\3643\306=\302\344\247=`v\376<\002\211\265\275{\365\002>\270\235\327\275\212C\251\275\000Qi<4\271\231\275|\260M=\000_\350;\251b\244\275\236\314\273\275\002\235\252\275\341\263\255\275\370\270\271\274.\303\301\275\262X\272\275\304\230\240\274\372Z\332\275\260\373\354\275#\\\002>^\255>\275H\205X=\300\003r=\\\322d\275\250\323*=\000\245\314\2758<9\275dn\317\274\265/\006\276\'\314\251\275\322 \370\275j9\233\275\334\351\232\275\306a\301=\214\264A=\270\350]\274z96\2758rC\275\230\327\242\274 \035\306;\244\037\345\274@\241K;2gH\275\340\272\367<\354\234\261\275\300\263\341;\026H\350=\0023\377=dSf=@\375\356; \235\266\273\000\207\367\273lB\250=\274\207\332\275\327\365\013\276 \204\212;b?\321\275\370Jx=\200\255\317\275\252\317\356=\3445\370\275H\376{\275 -\257\273\240!\026\275\0009V;\336\267|\275,\230<=\010\212y=\020\253\022<\230A\236=\244\323\013=\350R|=\340\r\300=\272\247\263=\306\311\304=\020\255\337<\374<\325\275\250\033\201\274\220\026<<\000Z\221;\2226\355=\370\254\337\275G\304\007>\270\033\342=\204(\314\274\260\347u\274\200\374X\275\346h\316=J\020\316\275\\\327\363\275B\321\241\275Y\275\003>\232\325\352=\nu\357=T\007\036=\2601s=(f\232<\374-\021\275\262\307\315=@\243\314\273f_\260=t0\315\275P\346\362<\010\302\300=\340\205\025=\000\222\2549N\355\264=\2242\t\275\234\216\034=0\345B=\000\022 \275\010\223\324<\334Z\370\275\364\'\001=D\337k\275\000v\354;\354\224\231=\201\263\006>\220m\266<hf\301<\266\253\262=\230\322A=\302\272$\275e\260\234\275d\337\255\275\236Z\324\275\200q]<h_\264=\376\222\373=h2\361<\226]\362=p\307?<\362\306\374\275H\365X=R7\352=BR\374=\344Yu\275\260\277\204=\342\217\274\275\300\'A<\210P\000=\314\350\007\276\340\306\277<\310W\214<\000\255\213< \371\332<\300\320\224\273 \217\010=\370\255\312=\345\221\344\275\302C\351\275\266F\001\276\346\036\273=ED\250\275\350\022\313<`\315<\274\224\276C=\316\211\226=\022\372\271\275ZA\365\275\350\335e=N\206\357=\254\205\\=J\237\367=\234uG=\nE\350=`\312\304\273*?\266\275\276\001\230\275\226\356b\275\220c\036<iT\002\276L\356\242\274\240\201\377;|_\336=\250/2=j&\334\275\270\241\215=OG\347\275\273d\216\275\320\177\262\274`\271\271\273r\340\311=!A\201\275nf\212=\222\241\224=\367\354\010>\204\232\255=H3\263=`W\n< j\306=`\022\204\273\204\216Z=\002\246\000\276\300\367\303\274\304v\347\275ZU\207=\n&t\275\022\021\257=<\032f=\233\205\227\275\030G\242<\252N\207=\010V<=\320\313\331\275\226\363\211= N\271;\266\277\272\275q\307\324\275X\375\000=~\272\333\275\022\277\341\275\345x\260\275\332\t\225\275\\#\330\275\000HB\275\030\211\213=[`\353\275\2205\332<\263A\202\275v\252\271=l\270\023=\372&V\275(\232y=xL\267<S\317\n\276p\007v<I+\n>\240\303\264<\210\017?\275\200\247p=\020\207\343<l\312b\275\316\024\316\275L\333\"=/L\005\2766^\256=\224\267\307=\200l-;\004!E\275\201\264\223\275<\312O=$\302\002\275D\026b\275\374\252\273\275\322\306\314\275}]\002>\354\320\244=)K\t>\236D\350=\000\376\023\273`\027\226=Tk\002\275\2344`\275\206\374w\275\266\251\341\275\354\253Q=\320\311\235\275\232F*\275t\016\247\275\374\256@=\206$\315\275\340\014N=\000\254\267\273\200F\027\274\332\221\325\275\370\220\007=J\n\004\276\014\021\177\275\373w\013>\274\353\307=\016\017\235\275\024\254\222\2748t\271=8\337\254<P(K\274b\314\370=\270\262\200<`@\'=\346\263\221=\254\367\031=\260\236\254<\370\344H=<\257\313\275\004\204\230=jr\344=\324\310C\275;e\225\275|\023\016\275\316\375\324\275\310\210\347<\263\371\201\275\016\213\226=:\333\257=\3677\250\275`\267\255<\0003\234;n\206\345\2752\006\276=0i\006=\210\320\253=m\024\201\275d\305\345=XJ`=\330\'\321<\206\345\320=<\345.\275\360\224L<P\214S\2756\350\005\276f\022n\275\307\213\360\275*X\315=8\271\364\274\247\024\004>x\302\332\275\000d\0139\260\236\226=\342&\216=\376>.\275\351\032\n>\360\027\022=\270^\245=\204!\301\275\000\320n=\277B\263\275\3203\351<\334|a=\302\320\246\275\260\250\010\274\360\014E\274\332\372\360=\344T\332\275\265\373\002>\376h\204=\004x\022=\271\333\006\276@Z%\273\360-\223=n\242\217=\014\374\017=zE\345=\026c:\275\213\274\370\275\364\266\325\275\\\305>=\000\336\237=\310\'\306\275\240Z\230<\214\001\254=pp\t<\003\206\271\275\220\026\202\275\324\347\253\275\340\341\206;\214\277\322\274*\272\216\275\210\306\003\276\276\033O\275\233\343\332\275<\205j\275\304=\252=\232\036z\275z\365\004\276\346\006\355\275ta\255=\3403\007<XJ\001\276\313l\351\275\240\340:=V\337\332=\200\335\024\274[x\000>TM\022\275P\375f\274wl\002>\200/\337;\267\035\250\275\300F\260;.c\275=v-\330\275\270\346\217\275\214\250\340\274\221\224\n>@\212\304=z\254\303=\200\272O<4\226\222\275|M\314=\300\355 ;\004<C=H\207\351\275\324\307\264\275t\365\317=\'!\t>\200\220\333\275\204\005\242=\300\246\305<\372\270;\275=C\354\275\213r\333\275\300\213[\274\336q\213=`\0307\274\\\321\220\275\020\234t\275VQ\224=\230\322\311<\000\236\277<TX\317=@\375\237<x_\317=H\211\033=\017|\003>L\013\274=u.\010>\020\216\245<\201\232\277\275\220\231\253<\254S\345=\364\314\305\275%~\013>R\257\271=\030\244\322=\200\310#;{\220\216\275\014}6=\350\032v=p?d<\240A6<\031Q\013>\264\365W=v\000\353=s6\330\275N\200\\\275l|b\275\234\372\'=P\333O<\260\247\353\2740/\n\276\324$\265=\336\033\003\275\000:\257\275\222/\317\275\374zV=\006\177\235\275P\nP\274H}\304=\304A\237\275\360\342\324\275m\376\271\275\212+\352=\3046\341=\220\022\361\275\314\202\010=2w\350=\205\210\003\276b\214\354=S\270\277\275\234\2364\275\234Z\266=\354\355/=\302G\256\275\324x\030=\341\037\232\275\260\211\326<\242V\331=<4\311\275\372\t\313\275\346u\213\275\340\252m\275\036\274\371\275\016\243\374\275\200\350m=\225c\373\275\326\235\347=\356\365\377=8D\350<\260M\206\275\007\\\322\275\226\204\336=*5\330\275\200%\330\272RB\361=cp\223\275\246\323\355=\267\200\334\275\230\035\276\275\324h$\275X\257\360<\210\372\000\275D\340\037=d\233\327\274\340\247p=\230\237\321=\3749\321=\270\346\216=\204>\031\2754\253~=\026\365\007\275\262\017\317=\336\356\323\275@\037\005\275X\n5=\250\276\301\275\350\240\377<\360\005 \275\360L/=\330R\213\274.S\275=P\344G<B\347\236\275\300\242\334\273\340\260\366\274\220\355\322\275\274nO=01/\275\0145\331=^\202\241\275\317h\000>\236W\336=\032!\277=\2004\037;\330\341Z=\304\242`\275n\"\305\275f\326\360=\270Sz\275\000\232\377;FJ\236\275J\210\377=~\227\326=PB\247<\271\307\342\275I{\005>\200!\250<\2008E;\024\342X=\354\372\350\275\342s\242=\202\315\203=\\?Y=\250<\300<\227\344\010\276\277\264\324\275[\004\002>\240\337\364<H\t\001\276$\235\314\275\200p~\273`B\235=\370q\302<\200E8;\346\244\335=0\265\324=\210\262\266\274tfK=\010\267\344\275\244\340\331\274\264\252\263=\020\n\333<x\'\261<P\262\022\274\014\243(=\300\225T\273\254$~=\3200\324=V\322F\275 \350\023<\256\014\244\275\355\371\013>\310\366W\274\230\221\263<\276\320\254=\361\265\253\275\350S\205=x\311\207=\3323\366=>7\211=T&\227=F\n\265=4\007\246=w`\355\275\324\272\331\275\344\026A=V\300\211\275 c\352<\200\343\203:$\371\030=4\322\214=\\`\261\274\244\306h=0\021d<\364\266\340=\332\371\377=\334`\227=\014\302\277=n\346\362\275\270\013g=\376\261B\275\354`\245=\346v\252=p*\206\274N\352\224= \373\000\2747\263\220\275\344\210\310\274\360\231.\275h\006\364\275\037\207\007\276\340\r\336;\000\315\016\273\254\336\217=e\332\010>6\020\305=\374\000\311\275\3429\001\276\230;B=T\200\034=\354.\312\2755\305\341\275V{*\275\246\020\302=\352\354\323=\2207\030\274X\333\244=|\360\243=\016\222`\275\020\005l\275\0004\303;\212\364\010\2751#\353\275\332\345-\275H\325\251=\240\267\374;8\326I\274c\256\302\275\276\374\244=\321c\250\275\342\001H\275s\366\243\275\226c\360\275\316f\333=\004\260\225=X\241V=\320\020\320\274\014\216\221=\250\315\322=0\'\001\276\240\017F=\360\217K=\n\266\306=\254\020\340=\244\257\313=\024\336\'=\244\177\035=\241\361\200\275i\023\372\275p\346$\275\361\006\207\2756\037\246=\000\2502\275\324\373h\275\032]\221=\330\212\246\274&o\300=\240\260\'<P^\234<H\305\325<\344\215\243=2j\351\27580\t=\200\010+<`\314\206<H\303\342\274k\022\277\2752G\260=AS\333\275\220\245\251\275\370\366\303=*1\272=`\n\274= \224\243<|\n\303\274\221\032\203\275\300\365\200\275\332M\304\275\262\376\262=\344`\212=\374\033\203\275\224\232\322=\"\031\240=\036\231\313\275\000pi\272l\367i\275\346\001p\275@<\275\275P\0061<h\237d\274\000\276\323\271h\263\215=Hh\257<L G=Vo\343\275x-\002=+\340\006>V\267\013\275@!\003\274\320n\307=/H\013>\266\213\010\275\220\247K=2@\246\275\364\364Y\275>\036\226=\222\026U\275\330\372\365\275\250\237;=\320\227\246=\260%$<\350\273\237\274X\036\271\274\370 \302<\336\017\204=\000\244\372:\244\324\236\274vY\327\275\324\006\374\274V\213*\2758f\202=\250\347\325\275\200\026\347=_\246\337\275\214\222?= u\006\276\246\003\255=\346\311\235\275\242\345\301=\024\335\352\274\\\305\317\275I\227\013>R\017\370\275\272\n\371=hOx= \264\013\275&\347\377\275\371\372\241\275\201\214\000>\202b\336\275\020\240\265=\322\026\340\275\250\204\337\274\326l\255=\336L\363= e\316\273\004\255\243=`\037\320<\264\022\341=\2404\006<P\251\216=B\253\266\275@@\233;\270\340\303\275L\357I=@\373\262<d\"\224=\031Q\001>\37617\275\235\317\007>\026q\230=\375\317\240\275\177\n\352\275@\314p\273d\211\266\274)v\000>(\202\265=Zn\231=*\242\205=)\351\n>m\226\252\2753L\205\275\"F\356=\342%\325=\035\255\205\275\360\340G=\260\215F\274\305\311\n>\032\000\014\275\341\273\n>\010\273\201\275\034\033H=`V\367<\210;q=\360\206i\275\244u!\275\256\237\305\275\304\376\312=\032\300\357=\310\231\304<\"6\255\275 \021\306\274\204\031\322=\000\304\034\275\016\351e\275}b\004\2760\222H<\272\335\001\275]\022\001>\270\233\234=\211\025\000>\322w \275P\336\004=\350%\365\275\210_\252=\270 \347=@Dv\274\360\026d\274@\006p;\353C\005\276~m\206\275\374=\331=\320\211/\275fG\013\276\276\222x\275\000\016\212; \036==,\360Q=\320\236@\275\354 T=\020\247r=\346>T\275`\n\037\275\216\235N\275X^\353<2/\233=\360%\001\275Fi\344\275\371\353\004>\004\257\274=R\014\353=\270\264b=\000/\260;T\333\336\274\007\240\005>\234\360\311=\234(==\004\346\261=/?\002\276\013\301\214\275J\004\235=n\236\316=\200\242\246\273\274-\027=Fd \275\242n\254=\030\010\326\275p\2766<`,\225;\0320\272=\327\341\206\275\332\256\274=(_j\275\000\r\200\273\201\373\242\275\350\027\270<\342\000\352=\024\306\240=\370\250\322<\014\335\304\275\244\016\225=\300U\027\275\2400\336;\244T`=\306\276\257\275N\001\332\275tG\'=\210\214\267=6\231\261=\031`\013>Pf\035=\323\242\255\275 )\200;\026y\254=\342\257u\275\020\250\026<7\364\210\275l}\315\274\\!\\=%E\322\275\010*\276\275\376\020\346=\364\241\277=1\254\010\276\'|\t>\030\002I\275\033\264\002>\310\250\213<\016E\247=>a\251=(\030\303=~\251\213\275\355\262\256\275\220\264\305<\377\377\004\276.+\305=\330\\\245<\270]\032=\370\030o=\260\034\311=\276{3\275\024)}=\306O\000\276\260\351\002=j\254\264\275\350~k=\326\233\341=\264\212\257=b\2167\275\264IL=a\230\232\275g\002\005>(\271\217=P\251/<\210\\\306<n7\332=\254\327g=0\3078\275Sn\225\275\010*k\274 _]=B\332\203=\2005r<\200\177\220=r\224\005\276\370\355\005=8&\337\275\200\3705\273\020?\007\274xG\230<@\021\007\274J\210\300\275@\010\226\273(\236\\\274\203\344\216\275@D_\274\263}\010\276\244&\231=(\320\272<\300c\333;h\314\335\275\302\276\352=@\221\023\275d=\337\275\304\232\336=\240E\'<g\315\000>\264\022\253\275c\215\337\275\360\274\030=\224\207\202=\036\226u\275\254 \221\275\277\204\312\275l\255.\275\330\303-=\356\226\271\275^\036\236\275\342M\252=>\337c\275p%\004<*\224\356=\237\013\000>(\'e\275\312l\364=q\351\342\275@\240\201\275\260\3121=\201\370\345\275nY\244\275\344\211\217\274\274\305\361\275\232\216\246\275\212[\203\275\000x\024;<\340\300\275\246i\265=\364WV=.8\350=H\253\325\275\303\016\003>0\226\336=\025\212\002>\354\221\246\275\334b\333=F\313\267=\263p\370\275\"\n\257\275H/2=\326G\232\275\230 \315=d\026\230=\204\323\242=\222\010\354=\000\275\350<PZ\304=0\366\035<z\035\372=\254\317t\275\232\311\271=\332\351\010\276\330\344\221\275.\036\"\275x\010\345<^I\036\275>W\222=\344\006\253\275P\242\327\275\361a\001>\257(\304\275p\014<\274^u\004\276\330C\200<\242\244\203\275\nba\275\246\272:\275\310\251\266<\312\323J\275:\212<\275\\{\237=_\227\340\275\346\220\220=yo\t>6\275\321\275\250vB=\010\",\275\212m\250=V\377\021\275\200$\177=\264{4=pF+\274\300D\214\273\371j\362\275\354.8=\222)\326=\254\213\223\274&\003w\275f\326\354=p\266\"=\010k\212<\276Z\264\275\266-\271\275\362\236\250=\256\273\t\276H\251\003\276\310\341\346\274\207\270\312\275J}\245=\004\262\300\274\252\222\243=j\024\311\275\324\\H=\2001\377;\261.\n>QE\344\275|0\356\274\022.\373=\306\t\372=\020\320\002\274\200\277\246:\262\217=\275XH\354<c\363\377\275\340\364\321=\200\252\267:\200\304\337\275\314\273\251\275\000s4;`;\373<\t\203\233\275`\244\232\273b\017\315=\244\362]=\245\371\005>\230tj=\000K\263=paM=*\354\357=:d(\275\003-\013\276\215\350\263\275\240&S=\014\217\340\275\240\244n<.\343\302=\272\234\242=g\357\004\276>\312\361=`\362\314\273i9\006>\030\337\204\274\014\317s=x\341p\275]\035\266\275\332\213\217=\000\340);\304|\275\274`\314\023=@n\022\273@k\376;x\357\304=\032\321\211\275\376\273\302\275\206@\267=\026\372\365=\014\t\304=R>\033\275\000\000A7\220\355\265=\250\216\270\274\220\006\260=\200\2562=.Q\303=\000=\\\273\032\207\240=\220J\350<\350e{\275\000\225b<Vq\377=\242\372\212\275\340\243b<\354\326\352\274l\036\265=\230\205\232=\370v\217=\340\030\363\275\200\203\307:\200!%\275\274\337\334=\362\\\326=\272\302\353\275\014\003i=p\243f\275\346\236\336=\207m\000\276\3757\352\275\266v\240\275~\014\360=\206\201\331= \t\361;\260\336\334<\020)\271\275\340\230\013=\340\355\206\273\340\342\325\275\241:\013>\224C\252=\262\005\315\275\340/\304\273b\200\367=\234\346\302=\220\200\206\274\334Fv\275\212\253\263=\360\200%\274\372\246\311=X\023O=4\234\352\275<\023D\275\264\322\253\274\247\375\001>H\211\222=\"\301\353\275\377%\353\275>d\365=\251\200\225\275 \356\326=\300\303\255<@5W\273\236v\313=X.\377\275\021\367\t\276\360k\n=\340p+=\2762\215=\000\253\336=\203.\013>\264\245\n=9\310\222\275\334\3636\275U\307\006>\244\256\035\275\034\357\220=\232\316\002\276=\262\341\275z\314\234=:\224\346=\340\273Z=@\206\223\273&\371\344= Zg\275\276\354\264=H\262\272\274\004\r\335\274\034\003i\275H\332\305=@\240\007=\342\313\207=\356\302\267\275\006\354\272=T3\267\274\350\227a\275\004\016\243\274N/\373\275\222\277\371\275\300\310\203\274\345\336\001>P\200\036<l!\250\275\274\254\332=\264+\237=\200h\034= \251\237\275\366\375\275=\030\243\211<\272\354\357\275\330 \312=\324\275\234\275\310\265\361<VO\254\275\320v\020=\212\256\336\275\204f\033=\206\257\327= \234\"=\300\200$<`\274\261<\250b\213=\032@\364=\324\350\206=\305M\320\2754tQ\275\252ns\275\301c\n>\270\'\344=&\226\365=\366b\352=\0279\212\275\025\226\365\275\016a\366=X{D\274\370\257\222=\006\261\276=\000\030.\272\004\356\270=a\371\261\275\254\273\204\275\310\363\220\274:\r\200\275\000$\254\272@\343g\273\360\201\205<0\241h=@\013\274;\002\351\224=`\241\206<l\320E=\263w\n\276\363\006\004\2765G\006>V\204\313=\022~\331=\274Aj=q\252\000>L\003\007\275`\221N<j\310\216=tg\014=\306\023W\275\\\322\250\274\350\013\243<\226P\353=>\336\316=L5@=\200\373\217\274\220Y\026<\034\003\342=\004\375\231=3\240\214\275\362\203\304=\3749>=\250\202\324=\032Y\305=\362\335c\275\010\212\330<\350\302\221<\277\203\013>\242}8\275\274\337 =\254\235\322= b\205\275\030\352k=`\262\271\275: \n\275p\254\307=e8\272\275\224BR\275\0233\212\275\024o\305\275\000MZ=\230\254\376<Z\340\314\275\352Z\242\275>\352\221=>\017\372=0\036K\274z\031\271\275\352C\350=\242\003\017\275l[[=kw\356\275\231\345\351\275j\226\362\275\277\243\010>\320\005\352\275\010\206\371<q\225\004>\226%Y\275^\355\371=\330\360\224\274\277\371\205\275\215\200\013>\246\343\005\276;\327\237\275|\030\003=\274J\331=\260\322\324\275\020\0350=\374vF=\200N\307<\200\3357=\216\366\022\275q6\312\2755\237\200\275,\016P=^\355+\275\300ei;\\\237)\275\362\315d\275\306\320\232=x\365\312\275\340\300\004\274\234\003\001\276\314k\264\275\252\3641\275\3008l<\010\264\316<\227\324\004\276`\224\363<\030\252\352\275\210;\316\274\377\003\200\275 \035\265=\020\301X=\234kx=vW\247\275\002\363\326=\334,\242=\355\213\007>\352\244/\275\332m\300=\024\t5=\364>\255=\302/?\275\256s\361=\014\377\322=H\375*=\316\324\307\275\222W\266=@\0322\274\242\377\003\276\213\360\210\275\320B\010\274\032\004\264\275$\215\314\275\360\220\331=v\306\221\275\333\301\006\276}\220\000>\376d\320\275\354\271\237=\320\305\'=\324\013\274\274^\272\317=X\204$=\356/\311\275\000i>\274\236\037\222=$w\233\275\341~\310\275Pp[=\000\2756\2728\360\274<&\305\266\275\200J\211\274\350K\212\275\020M\357<n\261l\275 \206]=X\357\340=\030\366#=\332\334\214=\210Q\335\275Zy\221=#*\220\275H\331\210\275\260\220\374<\340\006\335\273\020\374\356<\346\361\352=\201v\266\275<\360C=p\264\203=\340\346;<\246u\030\275\350\261\337<(\372u\274\250H\247\275%<\000\276Hq\256=@\232|<\360\232\'<p\335\225\274x]\010=\224\302\312\2752\220\275=\000p\373\271\000\023\205\275\224\3270=`)\326\274j\260\330=\243C\002>@k\351<e\t\002>\322\324\324\275\262\250\237\275.p\352\275\374A\214\275\340\272S<\264\tD=$\245\274=\340\305\t\274V\373\273=\276\300\266=\236 \217\2758\352@\274\364\356\341\274\225\337\206\275n\227\371=\204\006\253=D\201t=\026r\334=\240\354:<\010*\333=PN\033\275\000\264\300\272 0-=p\276!\274E.\004>\340\330=\275\366\334\n\275\354\\[=\3428\324\2750\373i<N\r\203\275\232\300\214\275\230\320\262<\000h\363\271T\023\007=\rY\364\275\002|\207=\224\376J\275\362\321\371=P\201V\275(\nI\275P\201\213\275\234a\272\274\201B\006\276\200\271V;>\305\320\275\334\355\231\275\274\230\010\276*\377\306\2759\353\230\275\366\244I\275Pp\227=\334C\242\275\330h\272=PZ\355\274\214\354\255\275W%\003>\315c\213\275\000l\"\272E\226\013>p\0376=\364\221\345=\216?\200=x\361\n\275\006S\231=W\203\275\275\200\246\344\272\241\033\334\275\260c\363\274\216\"$\275\000B\227\271\362L\353=\270\212V=\000\312\216\272@FU=\303C\n\276\025N\000>`\035+=2\361\233\275\006\014\361=\200r%\273jO\020\275i\030\253\275\224\312\306\274\270\341\301=\032}\311\275 \032x=\236\303\325\275\320<\003\276\324F\241=\3507\261\275\332\261\351\275\n\211\326\275\200\224*\273\330\320b=\330\362\221=\274(\345\274\200\220\r;\030=\336=\302V\242=\324\3307=j\375`\275\002\007\007\276\252\327\342=\3127\354=\300\346V<L\270\\=\370\270\203\275\340s\376<-\217\t>Z\301\236\275@\004\034=`g\327\274\256k\314\275B\266\342\275P\205d<\352\262\267=\371\240\202\275\337\364\007\276f3\234=_\367\364\275`l\253<Z\256\336\275\340T\025<\275\265\013\276 \215\\\275d\220>=c\304\341\275t\357p=\340\254\347<b\035\374=\240\341+\274\200a\323\273iS\007\276(\214\266=\204l\226= \2203\274\354\367\007\275r\034\263=\240>\032=\t\202\004>0\343\273=\334\245\223\275x\013`\274\006\212\241\275\220T\222=\200\234\200;\020Z:\275<\307\031\275\271\375\370\275\210<j\275V\325q\2757b\257\275dp\034=\016\275\234=\217\320\221\275)\216\225\275X\022\002\276\260\277:\274z\000\026\275~;N\275\356\020\250=-\226\010>R\346\023\275Ak\343\275\000\266\371;d\334\330=P\225!<\3405\376;&\224\205=)\366\207\275\370\0333=j\267\003\275\222\031\216=J\342\231\275\341\354\005>\347\336\003>\340$G\274U\201\000\276\314\030\264\275\256\316\251=T\316\266\275\331W\004>R\300\n\276\200b\210<\234c\334=l*\302=\\\227\204=\347\244\002>\200\247\266\275\264\205\221=(:\033=\254V =\020\213\333<`\256\332=\253p\364\275\360yU<\237P\204\275vL\354=_\242\223\2754g\341\274*2\345=\346\274O\275\2561L\275\250\377\271<\365\327\004>\374\031\317\275Z\211N\275H4\265=\030\000\332\275\3473\t> \263\372\273X\250U=\016\031\002\275R\316\343=a\"\007\276\030\373\200=\377k\202\275\003y\003\276\224[\242\275\\\215:=\246\2126\275bH\332\275\362\235v\275\254\203\235\275\\z\300\275tv\006=\236\204\371=\316\220\n\276\034c\233=\200=\343\274\000JS\272\324#\326=`\235-<`\212\331;\204\307\'=\340\252\335\273\230\t\225\274\250\250\003=\007\351\304\275Bd\254\275\010xg=\240\260P=\200\267\247;\250\030\004=\002i\320=\215\211\371\275|\270\215=\340a\201\275kz\231\275\330\201\350\275\260\315\013=\346b\266\275\200\034\215<\270R\273=~o/\275\230\313\366<_1\357\275\310\323&=\026\255\364=\000\251\267\273\302n\235\275\236\234<\275\344S\251=\354\371x=\262\221\337=p\344\231<h\235\246=\350E\337\274\330\212\267=Fn\004\276\366\030\277=\342$\251=\210\026w\275\226\300\361=\320q\001<h\323\234<@\322\347\273\000\225\202;\3000\345;@\332\300=p\363\035=\254\226\320=8\203\016\275\226\272\362=xha=\016\367\373=\240i*\274\306\327\200=\034\273\020=\034\240K\275L\266\010=2\027\246=\322\365\016\275\003,\002>\030\374\330=\340\3356<\330\006\252<DD\033=d\"U\275l\241\305=B\332\317\275K^\004\276HE\360<\217,\203\275U\307\000\276\332\203\345=\276\225u\275\000K\260:\3305\002\276D\365\213=\2000d\2733z\311\275\244\233\310=\340\351W=\010\037\235\275Y\223\000\276\260\360\256=\026q\223=\350\323\203=\204\273\262=\367\377\002>\234\305o\275\000(Q\273\300\327=;`\252\253\273\256\355h\275\\%\243\2756L\316=\2320\300=jB\265=<|Z=\312\307\353=\300\263F=g\027\202\275&\344\354=\350\226\231\275\310}\231\275\242\343.\275 \306\310=\374<n=\306;!\275:q8\275 \264.=d)%=|\336\262=$\221\244=\370\235\212=\304\2247=\222\211\370=\200>\265;0\367\273\274JL\236\275(\270F\275b:\354=v=\232=\002#\367\275\302\026\233\275\242\222S\275\337\247\373\275n_\230=\240z}\275w\275\006>\001\211\220\275\270\324\367<,\230=\275#\371\274\275\020i\237<\374-\234\275\304\252\000=@r);PV\021=\210\033\336\275\264\335\224\274\020\314\321<\202\374\t\276\304\225[=\370\356\264\274\300\230\235\273\364/^=\232(\320\275\350\342Q=\376\365\202=\321\320\256\275p\374N\275\252\327\372=v\256\241=j0n\275v$\275=3\375\n>x\261H=&D\205\275\252\335\373=\026\376g\275\344\003[\275\244nH=@mB<2\354\365\275~\207\365=`:\177\275\234\271\223\274\032$V\275x\210:=~\331>\275\276\260\002\275P\274\252\275`\306\272<\002%\203=(\035\205<\000\202\004<\355\022\275\275\260\320z<j\234\333=\300\246\216;\354/\330=\320!\354\275\024d\006\276\334H\036=\252\254\364=\240\214\217<\222\376\322\275\327\223\256\275@\267[<\300W\002<\273\223\005>5\224\316\275\250\330\260<\343\244\345\275BE\233\275\367\377\t>Z\371\200=\351\240\334\275\370\204&\275\3740\323\275\332\306\360=\272u\234\275 \350\027\274\270j\002= ca=\354\236\374\274bz6\275\324\342\321=\316\272\366=\240Bl=\262\243\220= \302@<\024\024\003\276\240\007\217\273\306\250\300\275\262Z\243\275\372\224\216=\264c$=\004\310h=\002\306\033\275\2022\375=\373\000\203\275x\325\207\275\262\227\212=\320L\320=\360\311U\274\232\255\316\275\026\016\324=\201\212\304\275 \322O\2746\333\004\2764\201\277\274\000aX;\300\260\364\273\330\234\343=\224t\217\275\370-i\275\342\340\230=\010\016\207=R\244A\275\220s>\274N\257\256=A\007\n>l4\240\274{H\001>4v\211=L\270l=D\364\327\274\300\236\244=\004\'\233\274\320\263\362<\312\260\272=\023\230\255\275{h\334\275\240\222\243\274\024\350\336=_\370\007>\252jq\275\300Z\016\273&2\341\275F\025\305=\' \010>@\250\032\273.\250\221=\\2d=`\'\351<\362\270\301\275\376\304\222\275J\225\276=\222\257\362\275\nf\241=\212\355\233\275\032q$\275t\267==f\345\210=\356\371\347\275\200\322\304=\230\240\251=jM\353=X\367\331=ze\306\275\004\247\300=P\314\003\276ps\004=?4\t>\255g\002>He\304= [\301\275v\177\261=\264\312X\275\026\355\352\275x\013q=(\265\354\274\000\225\204\274\330\257\253<\032\276\177\275*\371\364\2753\220\321\275\340\003a=\272\242\314=\206\\\330=\340\333\252\2738\027J\275\320E\"\274J\254\367=8\345\325\2748\226\235<\0007\331\275\014\234\312\274\376(\373=T\000\275=n\377\350=Z\266\210\275\375\230\t>\361\350\370\275\240\247\024<\2021\344=\216\032\271=\350\347\272=\330\353\210\275\340\377\341=\000O\364:\344\260\035\275k\t\000>Pk\n=(\023\314\275\"\355\306=HJ\303\275L\363\216=\320\026A<\330\213X\275\255\010\247\275\354v@\275^#\025\275\233\225\244\275\004\213\340=\304l\231=?\261\000>{\372\227\275\000;\"\272\002\035!\275\014\254E=\037d\220\275\210\017\327<&i\334=\333h\006>p\235\350<\257\254\005>l\324\334\275\304u\237=\326\255\006\276\300\252\247=\2103\337\275\250\004\250\274\306>\353=\024}\345\2748\3266\275\213\246\005\276`\227\235=\032U\341=\312\024\237=XoR\274\350\343\220<\315\027\n\276u\352\223\275\'\224\374\275V\327\013\276\226\316\362=\277\233\340\275,F\331=\032\024\307=\020\360\213<$d\272=\200^\304\275N\013\026\275\260\300\211\274\323\223\000\276\220\221\277=F3$\275\321\311\010>\324D\225\275\370\234V=\300\035\313\275\274\"m=\002\231\344=\320\t(<Q\372\366\275\344\276G\275\360\033\035\275\270\321\\\275\324Lg\275\374is\275\250\326\277\274:\320\302=*\021\337\275@\255\313;\024\216\271=C\303\242\275=\325\006>fV\255=D\306\340=\306\210\010\276\204+\203\274\340\232\261\275PP=<\000\204\306\273\252\257\307\275 ;\241\274\323\343\236\275\212\375\256\275\\\313\211=\200\264\307\274*\224\330=\234\301\330=LU\331\275\200n\307\274\300\267&\273\260y>\274v/\244\275\000\007\032\274\230\232\232<\347x\001\276\020\200\211\2756\245f\275\300\213\331\273\010\354x\274V\312\007\276I\316\010>`\374\026\275\342\235\261=\341\363\006\276\310f\260\274\262\026\300=t\252-=\370%\377\275\375w\336\275\276\232\355\275f\271\t\276\320(\343=\300\221\300\273$\242C=\020bj\275Q-\005>.f\266=\330,\244\275\300\023\017\273\026P\274=:Y\353=@O\213\273\357\263\227\275[\213\275\275\262s\365=p\367{=\361s\237\275\300h\274\2730\254R=\306\272\272\275H\2067=-\312\210\275\322\032\233=.\274\324\275B\014\202=\3462\367\275\024q>\275<\032\315\275^\016\242\275\250\022\312\275\210\r\306\275\314O\010\275\220\223n=\206ch\275h:\364<\210\3543\275\222\322\240=\340r/=61\217\275\243\372\004>\350Z\237=8m\230<\245(\007>\352\255\033\275-\017\006>+\371\n\276\000\252\216<\261\356\257\275V\365\334\275\240Q1\275\204\203[=@\020\343\274\320\224\000=\020\366K\274\037\322\231\275\256\023\357=0<\024<({%=\262\315\216\275\216\332\204=\034N\003=\306\210\377=`T\315\275\240\313[<\230\236\244=\034\236:=fR\270\275\272\274\007\275\372\232\261\275\200\307\025\275\200<\356;\242k\353=@-\020\274\240\312\202;\036\225\211=\326\277\302=\260P\023=\372\220\375=\020\177\316\274\376{ \275\346\317\007\275\204Nx\275\377E\213\275@\r7=\310\314\343=\255\237\013\276\331\010\204\275j\256E\275\027c\004\276L\304\246\275\314\342\335=\240*\210=\0047\273=\030\370L=\320\365\377<9\277\340\275\200\320\237\272\240\340\327\273\276\177\251\275\000\302\316\273\243\275\355\275\340\377\r\274\214Kb\275\260\237#\275\200\332\003<p\360\306<H)\320=\354\217\n\276\342\204\"\275\216^V\275\221m\337\275J\363\362=\264;\311\275\270\271\246=\000t\0369(\257}\275\200\207!;\202\240\n\276\006\367J\275(\213\271=j\334\241\275\000i\212\274Vw\343\275\326\265\377=\212b\321=\274w\345=$\010\311\275^\r\260\275PSD<\274\312\023\275\210\334\240=\363U\002\276LT\304=\210\034\200\274>\346\211=m\010\207\275\266\347\217\275\200\006\261;\010s\256=\200V\226\274\024\253\264=\352d\221=\216\300\315=\346\'\264=\034fK=f\203\356=b\327\207\275\"\272\305=\224\212\305=\310&7\275Z1\357=\206\360\257=\004\206\214\275\340q\275=`\366\205\2736\345\377=+\236\337\275H\265\217<h\002\255=\310Tr\274\330$\206=xB\311\275\2410\n>\020A\321<\3207\234=w\333\227\275\\\027\277=x\233\252\274\212\031\246=\360\365j<\325 \360\275\242\032\354=l\270\236\274.X\313\275\200&.<\200e4;\240\357\025<\271\t\200\275\274\316\037\275b\252\361=q\371\000>\227\275\004>h0\245<!\272\010>\210ZB\274\224{\376\274\340\017\205\273\214\264\247=^\323\310=\"\007D\275\310\317F=0\217\326=\352m\321=\363\246\003>\354\217\342=n\301?\275\001E\371\275\\L\244\275\252\331\003\275\376D\003\276\330\267\365<\020?2=\200z\307=\226\2154\275\275\364\256\275$\374\227\274N(\225=v\302\360=\006e\316\275\214\216\330\275\000\000\362\270\240\317\330\273|:\370\274\330\374\207\274;\306\010>8\334\330\2756h\373=\350\214\237\275\304u\322=f\253Z\275H\202\376<2if\275\000\324D\272\216r\353\275$\021\243=\366;\262\275\006\271\333\275`\202\260;\300\317:\273\036\266\275=\200\"\250\275.\024\214=\n\323\214\275\000N};\256\222\300\275}\316\347\275\002\342\327\275\302T\373=<I\254\274Z\222\347=Z4\211=\246\356\270=p@\265<dp\203\275\\\257\310\2754=\323=\304\256\233=\000\350\275\270\246x\321\275\312\'\274=\324\333 =\000V\232=\257V\013>\017\210\346\275\254\027\260\275@~\213;\376\253\361=,G\370\275p\237\320=r7\340\275a\301\004>\032T\361=Z\370\261\275J]\300\275\356\361%\275\360\006\205=\376/\013\276\\\274\250=\200\212v=\000aw\273\016\316\352=\260\354\277\275 \300\032<`\030 \274\270E\322\274 <\240=\330?\213\274\354\233D\275\370dR\274\236\226\310=\nz\372=[\235\334\275\320\337\345=x\234\255=\2206\205\275\35048=\237>\005\276\007\251\217\275\234?\255\274\233\362\273\275\231\226\353\275\207j\354\275\300ZB;\200\205_\273l\340\321=\256)\364=\300o\210<\200\207?\275\264~`=4\007i=(q@=]\227\003>4\251\021\275\000\034|\271\304\001O=0\320\311<\314LQ\275\340\377\000<f\361B\275\266\264\315\275*\256|\275\306=\341\275\230/\306\275\022t\000\275\024h\215=\346\211\345\275\267]\263\275\342\341\t\276\371\023\277\275\334\360\305\275\230\373t\274\234e^=\216\206\203\275\366\320\376=\370\204H=&\337\375=\200\016\331;\003\032\003>J6\010\276\325v\217\275\254\311\003=X\357\360\275(\033o\275\3304\215\275\2408\202<\350\252\276\274\334\314\310\275\217d\n\276\374Y\324=b\355\366=\262d\237=\365\360\347\275\313\351\n>\000\312\177:\307\277\003>\240\264J<\342M\332\275(#p=~\002\313=`[\216\273\006a\254=\250\355\234<\244\342^\275\346j\361=\244(\307\275\274\037@=B>d\275P\236\377\274\000:\3239\323\n\000\276fV\277\275\316m\337\275(\343\300\275\200\323\237<\027\261\246\275h\343x\275$x\337\274\\\353\351\274\300\027i=\366u\240=\032l\360=o\206\210\275\006@\274=\004\211\024\275\262L\257=\350E\017=01w=\204\303\346=h/\343=\350\320\323=\230U\216\274#\265\004\276XF\026=\035:\376\275\036\215e\275\326\367\374=Lq\027=4\271W=\304%\257\275\254\263\370\275\310\313\232\275\340\232\276=A\322\365\275\210\205`\274r\325\205\275>:\351=\000EX:q^\002>\002q\304\275\032\361i\275@\210\362<\\\322\252=4\240\274\275M$\222\275\334O\331\2740:\277\274x\016\211=*9\200\275\032\025\357=r\267\377=`\333$\274\250\316x\275\\\3209=\000\226*=\224+\352\2753\314\010\276zmR\275\367\371\226\275\340\014\025\275\350\216\237=\006f\026\275*\365\013\275\250w\334=\306|q\275\362\264\236\275\237Z\334\275\352Z\226=\264\277Q=:u\n\275\222|\372=\034\023\365\274\300yR\274\010\360\224\275 N\353\273@\022$=\230\007~\274I\017\240\275\022a\343=t\311\243\275\3523\002\276\342^\236=\302\361\370\275\014N\230=\220\177\346<\370_e=H\347\224<\206\365\375=\310&}\275 \233X\275\222!\275\275\230+\236=`\'\035\274fD\354=\3228\354=\250\247\201\274\201\243\217\275X\306\232<\256LL\275hw\262<\000\241\013;,I,=\362\316\245\275$\253\231\275\240E\363\273?\021\266\275&\232t\275Bz;\275\226\372\221=\rd\225\275\241\372\000\276\245\246\t>\020m\017<\352%a\275\244#A=\0346\001\276,\217\302\274\276\032\277\275\262\375p\275\002\256\356=$U\330=\n\024\020\275\022\371\352=\330O\216\274\301T\003>\324\207/\275\300\337\263\273B>\214=d\213\276\275\266\357\333\275D\020.\275\032/\361=\214{g= \324\252<\322S\277=\240\377\203;8\247\034=\300\310\343=\212\345\270=\357|\010>~(\345=L\202\324\274\350\201\361<\024\'a=\362\037\371=\001\036\377\275\274\243\277=H\257\304\275\316\317\377\275\303O\210\275\300rH<\310o\314\275H=\257=4\331\254\275\240\324\204;\300k\214=\000\361U;\022\002\252\275\266\177\201=`76\274\361\214\004\276xq\206<<\345\241\275b&\235=h*\254<\252\253\321\275\006\035\246\275\252a\235=@\333\254\274\222\372\314\275\234\327\210\275\260F\254=(\373\032\275PpN\274\216\271\241=\264\362\177= \350\317<\000$\217=\000|\243=\242|\234=\274r\335=\2008W;\324\233&\275\220\274\336\274\234\376\016=$|\002\275*\340\356=\344B\255\274\330\365\363<\373R\212\275\220f\217\275\337P\000>HM\307=\234k\372\275\324&^\275@S\337\273\374Om=xA\307=\034(\313=\344\355\243\2747$\223\275\212\237D\275pJ\321\275\004\223\367\274\250x_\275\234\310\371\274\374\213*\275\372\324\245=\240$\242<D\032p\275\032f\263=|\234\204\275\004\246\245\2752\226\347=\350\"\204<\304\341\234\274\304~9=\010\244\275\275\2402\201=\200\005\306\274~\234\210=\2106\231<\364\252*=\273^\004>\212\016\206=\034\034\034\275\000\326\353\271\264{x=~\201\374\275\304\002R=\206%\356=~L\313=\202\204\205=\244%\325\275\244>\210\275D\265\212\275R\327\220=\230\'\005==q\307\275\340$\253;\344\262C=\354\025\335=h\244%=\320\352.=.\277\206\275\353q\213\275\320\370\013\276\322\360\376=\374[\302=\224$&\275\314\333\252\274Tt\314=`AN\275\364k\020=N}\257=\300>0=\033\210\345\275J\247\272\275\222\262\007\276\000\346\211\273Vh\231\275\332\024\230=d\355\313=Y\030\320\275\004\3109=\246\205\032\275\306#\352=\336\315\362=\003\311\007>l\310Z=U\204\010\276ho\235=x\\\366<\004\334U=\256Z\365=\032\300\022\275\220\357\321=\356\t\355=$\214\325=,K\342=\260m9\274\263\n\201\275L\206\332\275\220\306n\275\376\032q\275\004\313\026={\347\t>J\265\307=PK\262<\364\371\243\275v\246l\275\"6\277\275\\\352]=\350\032\370<T&\206=\320\271\252<0\237\232<P>\030\275\n9\376\275\262\321\031\275^\255\217\275\000\340\034:d\023\255\275\030\351\340=\270\267G\275{}\311\275\000E\362<\374\007W=\313\014\004\276\271\226\001\276\302\016\204\275@\350T\273$9\304=X9\272<~\233\364=\246\270\326=\300,Y\273n\3455\275\214q\244\275p\"\253=\000\017\226\274X\342\254=O\r\271\275p\325\255\274\021\374\225\275\340\326\204=\004\370)=\000@\3779\030\230\320\274@\307\024=\220Q0=R\377\370=,\366\036=\006\035\260=<\036\274\275\262\"=\275\340U\373\275\367O\004\276\016\355\361=`\330\257;F\353\357=\214\371a=\244v\240=b\261h\275B\016\372=f3\320=\2007\242<\363\226\250\275\231\340\261\275f\222\376\275\020_\022\274\346\023\310=\010\361l\274\370\223\366<\370\206R=\340\2575\274\016%\002\275\336\234*\275 =D<\332n\345=.9\272=\2027\365\275\320\373U<\300\354\347\273\360U\327\274\342\356\372=$!\301=\000WN\272\010\216\374<\310\314\241=\206\337\350=M\235\232\275\220G\346\274\014\321\253=$\r\005\275\252}|\275`\231y\275\3247\'= T\354\273\254\200\250\2740m\206=D\270\203=\240\377,<\326\267N\275\245j\005>`J\013\275\n\004\340\275\017u\371\2750\037\363<HU\303=H\375(=\254\025\236\275\003A\207\275\222\371\303=\3042\260\274\372\357\240=\354t]\275\306\362\334=\222\343\016\275\250\367k\274\233b\300\275:{\276\275\274\037\201=@\255\027\275\252Q\246\275\rY\213\2752\036\200\275v\220\200=\220\020\336=\024\357|=\256\332\221=\322\230\371=\355*\321\275\346z\346\275\300\026\244=\210\006u=\326\301j\275|\371\034\275\303\333\324\275\320\361\302<;\352\243\275<\255\300\275\2048\207=\370\351J\274\2449\005\276X\231\332<\300\006\342<.P\n\276h\203\354<p\326L\274\344W\035=\364=(=:\372\322\2752\330\363=\321\001\202\275e\377\010>\363\212\n\276\304\362\316=H\224\341=6\276\361\275\260\333\200\275\256\222M\275\352K\357=\022\256\242=\310qP=\202/\356=\025\346\353\275\312\320\331=\n\315\343\275\202\"\215=T]Z=\036 \266\275\220\257n=\034\234\364\275\300\246\300\274V9\256=P\200\244\274\000\036\305\2734\275!=\3145\272=\2002[<\356\034\212=0;\'<\300A8=\\\030\357\274\354\316\241\274\036\224\357=\010\016c=\346\r\372=X\224\031\275\324\2444\275\260\357\237\275\300\224\345<\224|\332\274\036n\346=E\321\346\275*-\277\275\264\031\322\275)\306\004>\230 \236\275Vb\007\276\3468\350=\000\200d7(\270n\274\330c\260<\212?\001\275\212\010\371\275\350\0345=\254\365\324=7\275\205\275\222\023\324=\231\342\275\275\366\324|\275\230\027y=~\210\356=o\236\001>O\242\240\275F=\267\275\263\344\004>.\217\332=\024\034\352\275\212\207\343=:\343\230\275(#p\274\0044\210\274w\271\262\275\236\"\275=\312\021\343\275ol\343\275\000A|\274Hs\230<\356\303{\27525\356\275\200\n\345=(\317\305\275\230\352\303=0P\244<\t\377\375\275\nt\371=\334\r\267\274\214H\004=\344\000\244=\252\344\261\275\020\2623<\300\336$;`\221\271;\036\253\335\275\020U\365<$\2430=\036\272\220\275\324=\335\274nq\377=\024u\234\275\374\345\n\2754\311E=\214,\344\274t\232\337\274 \r&=wk\324\275\274\274\241=\262\216\326=\250nN\2740tU\275\034\226\277=\200X)\274\022!\366=\030<\005=\236\360\355\275,\316k=x\371s\274\340\305\327;\232\352\005\276\364za\275\314\257\242\275\260J\261\275Jf\333=\014\207j\275\352~\351=\220\271\204\274p\336\013\276 \206p\274\240 \340;\030\206y\275\000J\032\274\200S<\273\206$\201\275\214\355\352\274\234\267\334=\362\217\256\275X\324\257<\017?\013\276\004_\"\275\240\225C=|\321P=\000\311|<\200I\221=\230\277\024=\200\323\020\273\\!\251\275V\032\360=\314\263\250\275\000\257\251:\230\263\227\275\004G\370\275\270\003\317\275\212Q\222= \242\035\274\024\221\215=\000\202[;\300\3444;~\344\352=\234\335\246\275Z\024\350=\324u\373\274\360\302\363\275V\370\211=\230\356\246<\264\334I\275B\364\241=@\305(\273\304X<=\003/\351\275:\016\376=\300P\275<\350\347\251=\220\036$<\350(.\275\374.\010=\017z\007>\200>*=l\025\024=\226N\316=\2508\272<\376S\354=&\244\370=\206]\006\276\201\277\200\275\034\206[=\330v\232<\274\307\320\274\000\"P\273t}\002\276 \261\'=\370\262\233=\000\350B=\360\271\251=Zz\353\275\244\333\317=tl0\275\000Gu:J5\236\27560\370=\0345g\275\250\262\311<D\303\265=h@x\275\0363\336\275e\306\013>\340\002\326<Xi\215<`\325G<\024F\357\274\3354\353\275D\2076\275\310\370\326<H\337\363\274`\316\353;p_\204=\321\335\004\276J\353\307=Z\336\206\275\254k\347=js\241=\350\215\214<\006\305\314\275\010\223\317=x\275\364\275\233\177\002>\252.\247=\2406\331=\n\0040\275\3161_\275\222\275\033\275X=s=^\301n\275\270#\361<\240\260\253=\304_\272=\200\220\206\274\217\233\262\275\350\272\253<p\210%\274\201\214\t\276\256\356\013\276p\345\177=\234 \253=\264\032\225=\314D\230\274\276\214\000\2762\303\205\275\375\305\316\275\200A\327\274\260\251\215=(hc=\242}\010\276\"\301\201\275\016z\314=Z3\205\275\236\357\322=\200uT<7\017\216\275$\317\252\274L\345\005\276\274?\024\275\n\202\260\275\320\020d\274\030\021^=V-\343\275\300M\263;.\275\376=\373\220\004\276\256\210\256=>J\353=\370\220\314\2740\026a<f,\336\275\244\200C\275\224\310\222\274D\345\333=\375\323\333\275TM\213=\242D\243=\340\340G<\200\235\235=>,{\275\220 \221<p\224\333<x~\340=Z/\263=\250z\261\275f\305K\2752\277\213\2752\223c\275z\300\241\275X\376\227=\260\370\271\274\307\237\361\275\314\256`=\202\277\215=0\026\337=@Y=;(3\335<ip\006>4\367\221\274\200,\034\274\214\344\\=\332\372\275\275\330\317\n=\344R\240\275n/\376=pV\234<B\262\347=\251\221\237\275\267\264\001>\347e\227\275d\217\347=\305\365\001>Q4\010\276lm\345\274\036\254\333=\010\256\037\275\200\213\377\272\250\343A=x4\324=\336\260}\275\030\"\022=\200B\361\2730!8=\226i\375\275@\270\347\273`\2305\274\006\001\001\275(\203\317=n\020\362\275\227,\360\275\375~\010\276\200\006);}_\000>\367E\005>\240\272\323=\334\211p=`^x=(\014\206<t\213\253=p\037{<\024\220>=@\370A<\340\266\271=P\342\036<~\217\354=6\'\233=\300n+;\354\215\320=,\362\'=\234\376\216=\340\016u<\373E\013\276\320\214\242<\252\264\370=h\334\222<J\305\365=7?\201\275\225\\\375\275|\272\016\275\222\363\370\275\031z\010>\236\246\362\275,\020i=\201\321\374\27528\353\275\340i\310;<\370\006\276b\330\256=\347\'\000\276\360\357\000=\226\334\246=L\244P\275\256X\335=YI\000>\177\016\007>*\374\254\275TV\262=\277\353\247\275\214\366\325\275\000<\010=Q\205\373\2750!h\275@*\266\275\004r-\2758\260{\274\322=\233=l\266l\275\320R\336\274\310_T=\020l\030\274N\254\276=\326\252\253\275\006}\255=\324\030\222\274<\220\212\274@\2039;{\244\217\275\020H\225<\276\300\231\275\340!\257<PIY<QW\253\275\254m\256\2740\351P<\200\212Y;\030\014\313=r\354P\275,\200v=*\343\203=\020\263\006\274\"\222\234=\322\345\243=\344X\324\275.\344\366=vx\021\275>\263\266\275\312\236\261=\210E\247<Ip\000\276\272\t|\275\300\276\301\273LX&=\270\262\254\274$\351\004=\254\353\'=D\2125=\200\230i=\356R\234=\000\255\314\275\004l\334=\"\356\340\2758t\226=\317\332\333\275:\023\235\275\000\022\216\273\310c\231<\236V\275\275\266\036\337=\314\030\264\275$T\254\275d\001L=\266+\374=\220\333\334\275\360\003\374<\350\301\031=\262\346\001\276D\257\234\275\370t\247<\270Z\277<\376\337\256=\374%\270\275^\005\365\275\274LF=\270\205\240=zG\333\275~=\310\275c\310\355\275`\327\312\274\313\323\006\276\004x\264\275:\326\347=@>\030\273\370\203\027=N\265\330=\300K\031\273(f\251<\036o\321=\007m\002\276hI\203=\240[\206;\344\3663\275\200\335\337:\200\204`\273\360\316\342=\340M\351<f\0322\275\356\027\307\275\202\010\353=\254\344\212=\246e\260=\224\tm\275\350\260\267\274\024\251\312=/T\010>\354\2343=\351\323\364\275\370t0=4Q!\275\352[\375=\2749\341\274\354\375j=\320\024]\274`\201\337\274\354\356\033=\340e\364;\000\320;<\035R\372\275h\331\334=\210T\200<bMS\275\340\204\345<\325\221\261\275\n\374\236\275\204J\325\274\240\n\201\274\000\240\013;\230*\346\275\320\3603=0\325\207<\340\353\352\275\302}\220\275$\372W\2756\240\005\275\243\304\274\275\010\222\265\2758&\216=:\226\225\275P7=<i\320\n\276\242\224\265=\220\317P\2752\263\374=\200\324x=\313T\226\275\364]\377\275\0225\350=\366\000\353\275\000oL\275\214\202\357\275\000\016\267\274|\263\310\274\334\247\202\2756\357!\275\372\366\320\275\364X\224\274\000\004\335\272\200\020p\273\226\024\226=\254s\357\274\224@`=\350\2625=\"\217\274=\264\311m=\316Z8\275\350\210\206=\362\204\013\276|\367\247\275\254l\365\275\350\305\324=\npi\275\3121\372=7\262\237\275x9&=<H\277=H\330\320<\357\377\343\275\032\253\363=\314\021\233=:\224\371=0\3604\274\224k\334=\202\004\304=\360\312W\275\320>]=\340$\343=\260b\005\275\004\'\223=\254\233\020=\362\340\364=\320R\264\275X\032\254=,\270\022=6\331\244\275\334\323\365\275\374\007,=P^\364\275\262\223\356=\n\\\177\275\204\355%\275\266\372U\275<x\304=p\377\243\275N]\326=@\207\337\274\234\224\277=\010\315\256\274\010H6=>\346\364=\270zz\275\274SQ=\236\302\000\276\200\341\247:\360\331\003\275\335(\n\276\005)\366\275r\000\027\275a>\301\275\210;a\274\024D\347\275\213\216\013\276\355\013\002>\212L\333\275\210\370\334\275@\262\274\273\200\201;;\000\326\014\273\000\203\271\272\326\340\244=\004\245k=\003\347\006>A\322\013>\020\227\350\274\371\014\236\275\342\243\277\275\000\036\026;\316=2\275^\375t\275\2500\320<T\326q=\014\024\272\275\023\245\253\275x\004e=\272F\211\275\215\341\214\275\214bS=\254g\260= 2m=\322\266\320\275\\\251\323=M\022\006\276<`[=\300C\242<\240\257\322<,,\325\274X\246\302<\350>\264=04 =\244d\252=\333\205\355\275\274\350K=\274g\203\274pfc<\036G\246=\014\210\205\275\002\242\330=\302\023\316=~+\t\276\260-[=\n\343\007\276\274[\265=\032\331\271=\214\207~\275\346g\376=\014\001-=p\266\316\274\202K\317\275\340\204\006=\340\'\303<\021p\003\276p\023t\274J\000\313\2756\226O\275\334j\277=\200\256\256\272\246!\200\275\000\275f=\365\001\t\276\020>l\274\264J}\275\024O7\275\035\326\327\2758\0172\275\225\312\373\275\304\363\357\275\034n\315=&\357\374=\344+\303\275\232;\355\275\366fo\275\230\022\314\275\203u\274\275\010}\217<\000\001[\273\300,\337\274\240\243:\274xA>=\333@\344\275H\024)\275\234<\232\275\027\205\000>z\303\315=\3005\365;\300l\372<}\365\356\275 \027\302<\356\360\257\275\304-\261\274~\n$\275l\201*\275\320n\322\274\356\254\377=\200\274\030\273\210\351\005=0\342\345\275\025\177\n\276\226G\306=\025(\361\275p\2575<@\'\374\273\002\345\365=@\035V;\342\207+\275\310\025\033=\363\271\321\275 *\315\273\234W\203=\0352\013\276\"\371j\275\010\340\005=\216\376\236=xv\330<D)\271=\n\240\334\275\355\221\004>\326\327\234=pc\325\275\270\265\230<\nI\243=\000\310v\2715\350\204\275\340n:\275|\257\203\275\2263\255\275lD\300=\253\031\257\275\220zF<\332\014\244=\346\241P\2758\022H\274\360\325{\274\200\022+<\253.\005\276\235q\002>\356\215\373\275\\^\304\274\350\311\001\276*\305\322=\260b\006<v\346\266=\220-P=\230\340\352\275\211\245\353\275`\244\205\274N\233\321=\246\262\242\275\330\324V\275_\271\000\276`\253\025<\232\024\025\275\256\251\256=\207\207\002>\236\323\n\276\231\345\003\276r\366\234\275\224\357\221\275\330L\241=\372E\354=\240\024\327\273\252\001g\275\224A[=H\373\242<P9n\274!q\204\275\035]\007>\306\005\377\275\357=\322\275v\032\325\275^~\013\276\366\352\321\275\014\373\340\274K\266\206\275xnG\275\344;\341\275\021\006\214\275\332\256!\275@\253?=\254<u=\276\321W\275\313=\010\276I\014\013\276^\310\211=\274\241\342\275\320\025\016\275@\257\024\273\346\276_\275\002\276\317=\331\330\256\275\230\007\202\275\202z&\275\240\202P=\\\031Q\275v\360\034\275F\362\225=\306\203\241=\310\036Z=t\222\256\275EY\n\276\222S\375=\010H\347<\003\210\005>\334\301\351\274f\373\352=~\014\360=\326\234\202=\001|\301\275\243i\t>:In\275\010\346=\275\200\211\303\274hIe\275\366\323\034\275\300\351\231<\270\234\260<L\357\317\275\217\357\305\275\336\343s\275\322\346%\275\256\325\255=\310\340\322=p\245\240=Dc\246=0\226\336=\002\\\376=\366\241\323\275P\332\217=\200\204\003<0\206/=MF\241\275\322a\343=\020\330\232<\006R\355\275\310\335\360\274\354\226\337\275\225\005\320\27507=<\320W\202=\036r\204\275\237f\327\275\350\'\257=8\346w\274\330\374\244=p\217\024\275*\272\240\275\276\244\301=\206\360\345\275r\216\302\275\220a2<,\335O=\211\345\007\276\020\\6\275\353\207\002>F\327\325=`\265\354<\304\326\221=\267\036\316\275>\330\276=\374\312\211=\352:\357=#\n\n>\360\320\330=\340\240\351\273\240\260\253\275/Y\002>\020T6<^Z\206=\366\n\002\276\200\266\374<\014\344\310\275\2025\367=d\013\004\275\216\343\252=\210l2=&\330\265\275,v\314\275\301\034\000\276\007)\355\275P\253O<vb\000\276\316m\374\275V\331\372=\340\251\007\274\3024\361=\252\207\340\275\240)\345\273\334\357\232\2757w\005\276Ie\007\276:*\356\2752\023\350=\0300\273\275\204\010\244=\200\177\211\273@\345\262=\324\003#\275\240\255\273<\th\000>\000\033\320<<\017\037=6\002\325\275I\321\261\27509\224\275`\345A<\250\253\277\274\330\\\220\274\3044*=\265\340\356\275\370\372E=xn\357<\200\356\221;L\351\340=\200\212q;\264\270\214\275V\362S\275\256\032\202=,:\013\275\036C\025\275*\361\325=\014\035\326=OT\006>\264\243V=\000\212\303\272\316\264\351=\354\374\312\275\200\rs\274\000rd=\304m\313\275\260\231\322=`%\r\274\372Q\312=\334\345\344=\200\203n\275K.\335\275h\020\267<\240\217\352\275\016\345)\275\220\256\230<\n\320\216=\300K\215\274\260e\362<\000{d;\\\313\376\274\330\202\216\274\374\r\315\275\224\307u=@RT\274\360\002\205\275\374\357A=\336p\267=@q\226;J\305x\275\216\021\005\276(ez=\213\276\233\275\354\336\336=&\365\247=\033\360\010\276\234\t<\275\330\342\331<\"\027\370\275\220\321\270=\000@O8\340\325\216;\000\231\324\274(\344\366\274\200\234\204=V\245\371=;\354\230\275#\t\004>\360\366\223\274\000z\021=\316\236\276\275\274\014p\275\366\034\363=\364\232A\275\202\266\275=\352X\271\275\260x\364<\360\203\010\274 L\324\275h\211\274\274\314\270\t\276tQ:=\320t~=l\251\227=\223\244\265\275\317A\205\275\340N\340;\036\032\316\275>r\305=:\271\004\276_H\321\275\271P\225\275\304_\\=\376\340\311\275\032o\230=\'\263\003>\340\326\315\273XS\214=\014!\n\275\341\234\005>xza=\002\276\237\275\300\315E<\240\230\204<\332\277_\275\024\204\263\275\005\007\226\275h\357\002\276Z\305i\275hI\"=<b\275=\000\361\360;\220W\014=\324\263\334\275`7\266\275\014u\220\2744\337\004\275\300\206c\275\220A\253\275\030m\241=\024A\213\274\200A\274\272\200\330/\273\233\274\353\275\000\001\336:H1\321\275\200\017\310< ly=>\025\003\276\334\223\336\275\010\271\331=4\260\004\275\024\267\246\274\315\347\342\275\214`\013\276<\275\006=\236\034\316=kJ\270\275p\312\277<\325\367\372\275\000C\317\275\264m\010=\374\351g\275r\241\205=\344\020\207=$\274\272\275\010\367\263\274$\264\250\275\340\355\022\274L\037\006=8\230d\275\340\320\206;xg\020\275\312\274\022\275X\362m\274\0239\277\275\366\202\253=\340\256\252<\032\000\235=\3208H\275\236a\375=\320\017\253\274\206:\001\276\200\214H;Tt5=\020\370\276=N\343\243=\022Q\027\275\352\353\370=NP\236\275\2722\273=$\373\204=\0300\200\274\303\023\375\275\014\360\027=\240\030\321=\000\r\252;8\303\316\274\356\243\345=8u\357\275\250\330\027=^\377\320=\244\313\307=\\\200b\275\304/\235\274D\320\334=r`g\275p\227\n=\310\275\004=@\345U\275\200\341\241\273`F\032=In\353\275\366\201\256=\200\025\261;\000\"_\273VX\315=\000(\376\273\036\256\276=\264\2261=\374YZ\275@\316\216\274\323\336\211\275Be\273=\320\335\261\2750]y\275p\010\347=\216\024\271=&\364\207=\032\301\340=\"\310\360=\210,\264=[\006\335\275\306(/\275\3200\310=\024\332\313=z\274\347=\236i\361\275\366\210\245\275\324uc\275\020A\320<\306\227\301\275|\334!=\260\367\254\275\354(\211\275\220Ny=\200t\227=`t\225\274w\261\361\275\304h3=\360\205\365<<\215\375\275\356I\250=?q\370\275\2641\254=\343\272\n>\005{\225\275\371\033\013\276\253\372\372\275p\0139<\374?$=\340\316\010\276d\366\024\275XsC\275g\305\222\275&\032j\275\200\226$\273\254\022V\275\020\321\007=I\334\265\275\250u\222<pu\177\274\362-=\275J\212v\275\372\232\261=\326\001\010\276\002o\225=d\270\255\275`\300\256\273\312\356\371=0\274\255=L\347\353\275b\023\316=\0162p\275\010L\256=\202\010\327=d\317\t\275\000\366]:\260\'G\275l\273\307\275\240\343\362\275\216R\021\275\222M\256=\2326\360=P\263\t<\310\277\237=\300\262\315\274\033<\360\275`Z\001\275\300\276N=\301\213\334\275\336\234\355=\255\215\315\275\233\252\t>\207\340\345\275\266\236\251\275\302Z\354=\300r\261\273N\331O\275\326\204\221=6\214\366=\217\247\007\276\010\307\370\274X\273\325=\302\236\256=\034\ni=\002\366\375=|,\243\275\273v\005>\000|j<\330\342\254\274\000\177\327\273\212\023\303\275\330\342\200\274pe\002\274R\t\316\275<\254\216=P\312\'=\260e\263<kS\323\275 \010\"<B\245\013\275r\210\273=\210\374X\275\200\201\013=\204\217t\275\364\343\314\274\340\277\320\274\324\203:=\2004\222=\324@\324=6\312\350=h\"\022=\207\262\341\275\326m)\275\2103B=\020\031$<\027\006\002\276Pa#\274\270\265\275=\316\237\372=\306q\355=\2104\336\274\243\261\346\275\240\202N<\020\3260<A\367\t>\252\256\345=\240V\247<\326\036\353=\302\336\255=\000\241]\273\024&\302\2754\022\260=\204\341\344\275\305\301\370\275\310d\337\275L\002\005\276z\246\253=\372)\366\275\226\206\376=\226/\267=\270[\306=\000\244m\274\266\203\035\275\324D\213\274\231J\005>@\032q\273\236m\354=\377\364\335\275E\007\n>\nf\305=\212\240\222\275\200{1\273\200/\235:\345@\216\275\000\234\274\274\204hO=h\223\333=\004u\n\276`\026\216\275]F\223\275\240,\204\273\017\355\002>&p\033\275,o\215=+\354\005\276\240\277\335=\254\353\267\275\272P\221=\271\333\207\275\304:\233\275\010-\264=\300S\247\274\t.\013>\250\340!=\200{K\275\222\034\312=\360V\336\275B\257q\275\240\247\004\276\372\361Y\275\202\226\360=\332\363\250=\244\327\331\275\230\257\305\275Xlh\275\212\027\253=\177\255\360\275\234w\263\274\022D\235=\260I\351<\366\033\374=8^{\275\007$\003>\244\240\322=\0143\210\274\210\256\312=\276z\373=X\017\320=\032.\341\275\214]F\275\310\274\371\274\236\277\312\275\352\372\232=\340/\360<\342_\303\275\365~\n>X\242O=\237\330\006>:k\350=\304\366\211\275\252\311l\275\262\207\351=\241x\004\276p\277\251=\316\353\301\275|\305\234\275S\024\002>lC\257=2i\366=\260T\254\275\340\226\374\273\350H\002\275*Y\361=\210\321\007\276\266\220\313\275\310\373\236\2758\006s=n%\374\275\360\317s=\220i\264\275*\273\"\275\300C\222<\002\356\256=\204.P=\253\274\001>\242\373\357=$\031\342\274\344=q=>hE\275\000\323\010\2738\326\337=\370\320:\275\247j\250\275\200\307Z=P\226\261=\304\2765=\221j\002>\214\216\253=\216F\212=\306\227\265=XH\327\274\205\331\244\275\032\243\342\275,\253\273=\300;\307\273\234wp=\262/3\275\240\274|\2758:b\274\355\305\333\275\310\017\351<\315\300\010\276t,\307\275\244\374\360\275\2369\263=\361\370\205\275\020\213!\274l\322\314=\222\256\314\275b\341\316\275\000\265@\273\260B8<\254\003\357\275\234^_\275A\310\006>\234\355[\275+\235\010>D\366\260\275>\367\310=\306T\334=\350\376\221=\360OD=~z\341\2754.\363\275q\246\310\275|x\"=\252[\352=\236\013\027\275 \334\315\273\347\266\276\275 \346\330<\000?.<`\376\354<\020\326\013\275,n\364\275\031\204\t>@\275/<G#\223\275\316\344>\275\346\332L\275\364\0078\275bn\037\275$Q/\275\002\037\204=t\333,=`\241\362\273\267\350\n>\270Z\275\274[\317\002>$\213\251\275\360\352F<\352\266\202=\374I\302\274\333&\376\275\272\010\347\275\022:\214=4\311\361\2746\020\370=\322)\244\275\025Q\317\275QG\360\275\030\024\326=\240\224V=\014$\273=tku=2\260\207\275Ps\273<\352i\001\276 \'\325<\004\'\214\275\304\250\013\276\212V\264\275 \223\352\273\254\2651=\200\033\330=ZFy\275\020\231==\262\331\232\275\272\220\305=\276\310\246\275\307\007\307\275\354\302\334\275\330j\301=\206\376\237=\210n\344<\354\354,=\220\253d<\010\t`=\340\321\255\275\376>:\275bo\225\275P5.=\001N\006\276n\r\364=\236-\375=j\347\231\275\356}\362=_\206\005\2760d\032=d\025\n\276p\3131\275p\366C<\250L\232\275\200\230\271=\314V)\275\376H\306=\340\006\234<\300Pt\273\342\000\204=\200\314\202<\244\006\'=\010\340\323=\354\253\r\275V\370\346=@\314\257\273\013\027\n>*\224\242=\370\242I=\342\221\366=\314[M=v\313\334=\246\363\365\275\023\260\206\275\240z\355;\356\310\211=k\320\003>k\002\002>\372\213\227=\225\224\253\275\006\274\001\276<\206\250\275\360\265\\<\344\332\267\275\312T\352=T\0060=\300\333\203\273\276\326\254=\234-\263=\202Q~\275|\210\237=\235\345\321\275@\332\356;\366\272\351\275\371\234\013>\360\004S<\306\032\217=\304\300\376\274\350\207\332<\026\350\254=b\030\342=J\364\234=d\202/=$B\031\275\234j\316\2756qT\275\334\203\300\275\274G\225\275\224OV\275\220\036k\275@WC\275`(\370\273\006\313\230\275\216\021\267\275)l\t\276(^\256\274R,\340\275\376]\342=lS\241=\016\275\376\275\"\300m\275\266{\343\275\2253\013>\000\207\"\2744?\354\275\374\377\365\275\\n\233\275\307\306\246\275\303\277\222\275\020\206R\274D\361+=\210\247\342\274\356\324\"\275\000\214\t\272v\211\271=\304\362\224\274j\203\342=\036?\246\275P~\340<\320\303\365<\242e\300\275\204-\325=`K\004\275^D\347\275.\357\247=^\225\267\275X\231\244<\200\367\345\273RX\343=\222\376\301=@\262\310=, \355\275\024\233&=4\302\264\275X\013-\275\2164\356=\034\301\177\275\216%\216=\320\227\307=\360\233\320\275X\021\256=\220\361\313=\266\362\231\275\266\342E\275@\256\027=\206\364\r\275\006C\366=Rj\025\275\350|\022=\324<\013\276 G\265=\340\331\331<\340\267\355;`\004\357;\030K\361<\254\306q=Hd\240<\230\272\231<\244\230\005\276\245\257\272\275H\221\356\274\3742\210\274gH\276\275\026\003\270=\2103)=\232`\317=pF\312\275\270^?=\236`\360=\2721\364=\377\332\333\275b\235X\275\224\000P=2\3215\275 \r\031=\000;f:\344\237\351\274\344D\371\274\tT\353\275\360\0139<H\223\314=~\371\352=$U\335\274\0368\227=\310\275\243=\210b\252<\366\245\310=\004Rp\275\220\355\321\275\036\320\306=\000Q\262;\324\003w=C\244\305\2750^\237\274\200\0221=\275x\373\275\330\021u=\260\325\026\275x\346\227<\330\212\253<*Y,\275\364\357\021\275\025\025\007\276x\204\237<v^\303=V\026d\275@-A\273X&\000=\322_\235=\233\316\007>$\377\304\274\274\346C=L\253\025\275\324@{=\220O\271\275\256@\264=\236+v\275XUr\274\347\220\200\275L\031\344=\355\272\001>\020#9=~\207$\275\210\t\277=\340\322\257\273\230+\034\275\202\345\277=p#B<\220\023T=\237\010\203\275\310\340\255<\021+\004>\\wH\275\265B\003\276A\347\350\275\200\275^\273\346>\334=\256b\315=\250S\274=@\231\313;\300_|<x\325*=J3\331=\004\236<\275\314y\236\274\200\033\353;\315\352\375\275\240p\023\274\0004\211<\006>\260\275@\253-;9h\276\275\344\320\316\275\240\325\210;H\0142\275\334c\036\275\366\250\220\275(D\377<\254yi=*\t\356=@\261\030<:\235\n\276\002\231\353=\260\r\003\276\200\333\251;q#\313\275\330\317\006\276\024^\331=T\324\303=\340f\330\273\250\035\333=Hz\331\275\244\r\367\274\372:\273\275.\244\360=:\344m\275\200\220\244<\236\242\370\275\030\025\244=\300$7\273\302\362\236\275~$*\275``6=i~\372\275\214\323\377\275R\t[\275\254\240\327\275\362j\000\276\327\303\370\275Z\034\366=\336\036\016\2758\306\375<&\300E\275\341\334\010>6\272\257=\260wz\274\020B\226=\000\210h:h\362\337=\314\365Y=,\377\"=\230/\006\276K\230\013>\020\177\264<\350lL=\201\200\211\275\266\014\212=\272\003\221=x8x=\330\000*=\314\215g=\346\024\035\275\022a\252=\246\021\353=\200F\"\274\266\007\231=b\240\220=,\203A=\220&S=\366vz\275\310\361-\2754\232\266\274\300~:<\302\t\230=\303\253\304\275 \034\336;L\321}=\324\356\244\275\362t\201=\253\034\001>q\275\244\275\224\000\256\274jR\311=\354k\316\274\224\363\235\2757W\t>\000\260*\273\240\030\264\273\330\305\302\274\000k\267:9G\247\275L\270\351\274\323\230\t\276\030:\372<P\231\345=\016\203\234\275\364\304\272=\007\204\t>7\325\013\276\014\200\262\275 \302#\274\314\305H=n\303\242=jHM\275N\013\362\275\001\004\337\275\246\207\333\275\212\245I\275\2341>=\002T\211= \255\261<\314\305\001=z\351\227=\035x\332\275p\005\323=\035\251\341\275\331\352\013>\220`\306<\335\303\235\275\200l\264\273>\256\205\275(\354\325\275|\317\335=\320\263\252<\240\n\021\2746\036\214=h\222\321<b\312\370\275\332\036\360\275`\243\001=En\275\275~_\375= \225?<\224\231\005= \037\010\275\030T\262=`\205\367\2758\3111=>\252\361=\034x\004\276\242\017\343=7\235\001>\014\020Z=\204t\271=\3541c=\354\303\004=B$!\275\3463\265=O\332\261\275\240\306\333\273\346\247\324=\022\004\344=(=\226=\226\316\362\275\200\267\336;\000\202\227=X\034\372<\340\224\341<i\032\340\275\312\300\355=\230\000n\275\312\262\204=h\321\210\275\330\333\000=p\311\266=\316b\325\275\360u\273\275\342\363\372=\310$H=\004B\021=\227\024\256\275\340\350\276\275<\336\301=\200\305\326=\340\226\246=D\013N=\324\323\335=5\014\310\275\000\033\364;\371\327\255\2750a\022=\374\312\355\275$\253\332=\274\241\242=4xh=_\314\250\275\320n\277<\0362\212=xD\202\274\000\333\023;\360o\352\275\354\2036\275\210\022A\274>\262\313\275b\372\252=\341\254\373\275\233\340\334\275\240\3366=\236\264\377=\000\340\032\274\177g\006>@\347\"=\354\215\217\274\002K\223=>\245\323=D\322\305=\326e\372=\020#\036<\310\361\242<\341\276\002>|:\016\275\330\032\310<\010\236\006\275\343\210\357\275\240M\274=\000\341R\272\000v\016:\322U\242=\350}\266<H\320D=\016L\303=\240\245\314<\000\320i\270\300\336@<\014}\214\275 \335o= J\253<Xhg\275\260\3658\274\200\000\301\272\240\332\026<hR\313<\300\004\030=\244\233\346=P\323\226=\002\"\353=X;z=>6\244=\200[\002\275\206\314\233=\350h\367<\321d\310\275z[\362=\026\311\355\275@\311\310;\360:3=\330\0313=N4y\2756w\255\275P\273\356<\004k\213=H\364\003=\\\311\204\274Ec\013\276\302\335$\275=Z\013\276^`\272\275jD\273=\220x*\274\302\261\220=\274\261\007\276~3\323=\302\033\244=\220\023\245\274H\007\223<\200\262z=\200\325\225:\016\220\211=,@\335=\221>\230\275\300\267\221<N\327>\275\007\334\010>V\014\352=\231\r\007\2768\020\277\274\250\377\214<p\361j=e\325\220\275\271P\005>\362\363\375=\300\301\177\273\234\024\337\274\222\177\320=\374\371]\275p\355f<\3579\336\275p4\262\275\244\324(\275\300\241\021\275\030[\254\275hu\330=\020\375t=\374\317\201\275\300\363\225\273\300\234\356\273B\247\363=\3768\006\275\274\177\316=\260\201(\275\364\252\325=0\260\256<$9\242=\370HO=\370i3\275\n\265\202=\311 \332\275\026\227\374=\250k\317\275\221j\204\275\260\253\257\274\230\373\337\274d&\341\274\010#R=\355\345\207\275\363\201\306\275L\325\362\274\320\244\252=Ds\021=XV<\275\226ak\2750\336Y=\302@\301=tdG\275D\034\336\274\016\324\324\275~?\023\275\350\210\265\274~+\300=\272;z\275\000\213\331:X\271\262=\260\242K<\340\306\301=F\004H\275\240\365\002\274\332\231\370\275t\247\370\274\264u}\275\316\310\236=*\223\007\275\202N\372\275\324\340D\275\320\334\224<\022\024\031\275\264\'\261=\3749\250\274\336\373\266=\257\017\002>w\013\213\275\300L\360;\036\226;\275\274~S=\332\025K\275O\036\246\275(\213\272\275\316U\357\275\364d\010\276\214\232-=PJ>\275\304 \207=@_I\273\261\215\000>\320\365\211=~\013\216=z\325\334=R\036\301=\364\316\214=\270\352^\274\202\0340\275Z\200\t\2768\251\227=\312[\314\275\336%\374=\350\346\234<\346\264\275\275\270\332&=\2003\271=\310\200,=\004LE=|s\212\275d2\347=\004\350\010\276\240`\016=\207\250\000>\250\300\201<\004\207\004=\246\316\372=\022T\325=\204\001\327\274\372\016\325=\200\003\364\275\343\206\002\276\314\200\254=8\254\n=(v\364<(e4=2\263P\2750\201\242<s\"\n>\027\030\225\275\360Zs=\274\272\377\275\024\'\305\275\316\262\352=@Q\274;\302\300\237=\016%\310\275\326\037\257=\240\320\373<X\203X\274\225\220\337\275y\r\224\275\364\251\221=\342\263P\275a\320\010>\253{\267\275\256N\376=\004\206\313=P\010\317\275\023\340\277\275O7\002> \312o<\340\255\263\274\030;_=h\255L\274D\333\262=BC\276\275\254\021\274=\344\222D=\203\366\276\275\262\212\326=\023\214\340\275\353\017\013>\234\037[\275\340\210\277<\004{\257\274\010\271\270\274\000\234\360<0\353\313=\274hz=\246\366\242\275(\002v=\200O\235:`vs<\000\305\337;\024\274\347=l\344k\275\000\000\352\267\300\204\334=0\320\016=\360T1<\300 ^<\356<\307=x\316\212=\240@\314;`\014\222\273\212\377A\275JP\373=\303\246\007>\267\033\n\276\010F\337<\004q\356\274\272\311#\275z\230\001\2750\222t=\037_\206\275\260Y+<\2005T\273 \374\335<\374\202\376\275\256\250\253=\314\353g=\210\212\000=\304\267,=\010\301\375\274\304\263\312\274\335\007\366\275T\232\217\275\246\215\263\2754+T=0O\025=\350\224\005=\353y\t\276\307v\215\275\246\267\251=@\016`;\222\305\305=`;\264<\340\177k=@a\311=\240\376\r<\236^\312=P(\243=nv\365\275\014\212.\275<\247\312\275:\017\306=\220,\376<\360Q\342<@d\322\273\377+\217\275\004\276\355\275\240\352\360\274\336 \253=,\314\345=\000\022r;\234R\212=\234=\265=\350\370m=V\307\337=\002>\355=\000\r\235=\270Z\262=4\211\320=\242\346\003\2761\241\010> P\274<\254 D\275\344\\8= |\212<\3204\317=\342\327\254\275\210\264i\275\362\025\235=,-\t=\270\317\022=p.\337\275\266\323\267\275\000\325\000=8C[=@*F;-\312\237\275\266MZ\275\004>\342\275\330\"{\275\334&\013\276\216\010\365=5\244\241\275hn\251<`]\257\275/\240\201\275\270B.\275\250\350s=P`5<\034\236\264\275\244+\026\275P\306g\274\262\211\024\275\022\244\254\275l\016\357\275\217H\002\276|\310\n=\330\237r\274\247\216\216\275\326\t\377=\240\025Y\2748\005+=\030\317\016= \215\025=+,\254\275\000\360\304=\340\0262=\331\241\004>\304,\210=*\020\214=H\361\262<X\2413=2\240\"\275\270\342\367\275\370\300\354\275|\235K=:\016\212=A\254\001>\002\016\347\275\210\206\251=$\332\240=\220By=\0007j\275\306\274/\275\\\'c=\322\207r\275j05\275,\3118\275\"I\000\276{\'\007\276\200\306\036\275t%\347\275 J\361\275\265N\001>q\300\363\275\331\325\310\275C\025\201\275\020b\365<,\242\202=\225\004\t>-\204\274\275(u\310\275\200~\357\273\262\211B\275\275]\373\275\000c\250=pr\032=Q \t\276d\006\322\275xE\235\275\270\221W\275\004V\344\275\034\300\253=:x\213=B\250\217\275\236\355\267=\3415\326\275\356\030\350\275\320\357l\2740g\260=`\021\211=`\304L\274f\361\367\275J\032G\275\2300\255=@ \321\273,\211m=p\300\246\274\300\277\351;\335\257\004>P\332\211\275\306K\327=$\276\002\275\230\021\271=\362\023\201\275\342j\267=\226\263\356=4\025\355\275:0\376=\326]\243=\371\221\007>\200\320u=h$\232=L\027\331\275\022\203\347=F\367\307=\260\376\313\274\035\327\005>\342Q\252=,\363\023=\233 \013>\250\311\300=dw\026=\000m\331=\016\214\370=%w\010>@`\351\274r\026\353\275P\351Q=I\"\007\276\300Q\244<\222\324\361=\330^\332<V\016\313=\224\252\024\275\216\024\372=\330\372\302\275,\351\221=B\250\t\275`J\244=\330\332\270\275\270\206\201\275\307\226\213\275@v9=F\334p\275\014e\206=\274\020\266\275\266BZ\2753\014\010>8\345*=\036\'(\275\362\326\304=\240\265*<\3569\362=pIn<\353\r\013>-\271\362\275\356a\332\275\316\226G\275:\346\333=\340O\314=\2404\266=\360\304\375\274\354\220\310=,\022\311=\342~2\275\3405\332<\370\210\221=\000C\376;\362\257\010\275+S\t\276`\207\367\275Z\305\367=\030\221\301\275\2707\t\276\210\302\006\276\014\306\334\275,Y\333\274l\245N=\226-\317\275N\363\301=\230Q\311<|\003S=\320\232v\274\312\272i\275\204\031\300\274\366m\237\275\300\334k\2748\006\206\275x\275\021=\200\263\370\275\300.g\273 \234<<\300\266V;\004\300\263=\322n\334=#\242\246\275\'_\264\275`\374\037\274\252\335\247=\324B\316=\362y\304= c\361\275\306\266\322\275\326T\350=V\021\303=\232\017\206=U\261\217\275\365\024\361\275\230\201\206=\270\242\250<\326Z\216\275\000\224\240\271\030O\207\275\336\206.\275\300\000\230\273`\234\215=iH\007>\227f\357\275 8\253\275(\354\205\274P\337\330=\206-\213\275\200\242\350\273\320J\242\275\010\334\t=\213u\201\275\230\200\313=\316\264\226=\000\236\005:\311\261\336\275\212\260_\275\\\211e=\220\340`=@\004e;^\007\230\275c\214\305\2759\332\013>Vy\221\275^\330\327\275r\362\350\275~Z\257=\000\313\r\273\026\010\266=H\262\001\275\nj\005\275\342\013,\275\034T\255\274\020\302\017<\000\264X\273\221\244\000>\314\237v=\304{\306\274\23632\275\234.\274=N\335\375=4i\244\275R\203_\275\374\313\216=\306\311\300\275\316\340\361=\000gv<\271\213\000>\004\345\355\274\024\347\267=\036t\033\275\200G\264=\334\334\214\274\270m\232=\"~\372=(x\322\275>\262#\275\000\210$=\270\330\224=h\326\232<\220\027W=\363q\005\276\266c\366=\220\320\273<\177\303\232\275@\333\346=\036o\274=\270\273\310=\177\223\007\276\375\371\n\276\030\362\365\274;R\t>\320\000\002<\274\351\005\275\322\032\240=\372\350\364=\244\336\234\275>#\031\275\276\270\224=|b\277\275\004\350`\275a\311\326\275\330\014\315<D\010\233=\nI\273=\262F\221=\344\202\021=\254l\322\275\200\246K=pb\335=0\344\215\274\352t\202\275`\207\377\273\000\343\302\272z\027\375=\370\034\302\275\002l\336\275\314\353|=\020\304!<d\'6=\250\007\273\275\231\362\270\275\340\245\322\273Z\316\371=\200R\262\275\220\254\024\275\2703\200<Ez\004\276\200\004\313\273\0264\362=2f\336=\374\037\212\275\200\273i=\264?\270\275\227=\222\275\332Z\266\275\226\312\376=\236\021\306\275\200\256\315:\250B\211<\020b\340\274/r\216\275\302\377\271\275\370\370\221<V1\256=\246l\240\275\305\207\204\275bX\213=\350\235\271=\330\354\034=\002d\313\275\360\233(\275@\260d=\212E\201\275n!\352=\342K\246=h\261L=\020\332\325<p\360p=\2308\272<pc\017\275\346\316\303=\264\244E=(\014\267<\362sV\275\320\002u<d.\031=\320\377\001\274\204d\026\275\311\223\355\275r\217\341=\001\250\n\276x\343T=t\314\241\275\020\336]\274\026\022\032\275\227^\372\275\234\332\322\274pG%=R\200\272=X\034x=\347\302\205\275\340\351V\274\254\032\334= \263\367\273\3229\303=\342\303\331=dv\237\2748\235\t\275\372\317\212=\206\232\322\275\314\222\306\275`S\230<PW\013<$\250*=l\2405=\034\230\335=P\324\216\2758\270\371<\177\265\302\275\330\307\305=p>q=0\330\341<\231\374\326\275\006z\336=p\024\351<\362?]\275\326\253\300\275:\376\227=\360\377h\274\220\350i=\260z\236<@!v<\371\303\245\275Z\371\377=\217\261\002\276\217K\002>\000X\245\275\210\336)=\315m\222\275\330O\322=\230\005\211=\024\2371=\310\225\241\275\200\371z\273&\234\272\275\364\030\243=\344H\361\275\336t\370\275K\303\233\275\370\371\263<\324Zx=\302f\006\276\357\325\006>\362\202\215\275\254\206\310\275\010A\274\275$\206\224=8\277\374\275fNZ\275\320\014R=\362A\264\275\027\206\316\275\216O\023\275\356+b\275\220\262\244<^\271\350\275p=v\274@i\002=\244\023\360\274\215\275\225\275\000\030\031\273\242\207\367=\036a3\275j\013\355=\360\271!\274\340\341\n<\205\341\t>\216<\002\276\3009\336=\260\245n=\267\351\013>0\352\014<\016&\300=.i\341\275\210E\347=H\243\231<\362C\377\275\3725\375\275D\2049\275\356_\275\275\360\305\206<\330\203M=\300\335\205<\260I\274<\330\315\335=\360\232>\274\274\006\260\274\200c\322;\020f\324=\211\200\337\275fK\243\275h\316:\275T\010\376\274\340$\227=\324\216\241=B\304\252\275\302\036t\275H\220(=\332\335\362=\310\005\303=\223/\002\276d\342\310\275\370~\376\275+\350\006>0\373\232\274\232\213\272\275\204\271\237\274\374\244\360\275L\342\010\276\315\322\002>U\327\001\2766(\006\276\242\247\264\275P\245@=V\224.\275b\331\252=\022\227\336=\212I\245\275\354x]\275\224\3521=hAa\274*\203\335=z\246\224\275l[\246=d\313\237=\352;\272\275h\'\202<\240\211A<\2402\367\275\326c\014\275T\035_=\300\275\274=Hr\342<\260\315z<\247\020\217\275\2350\217\275\204\"t=p\245)<\300cV=\250\324\207\274\252\360m\275\304\364\016\275\240\346\224;\"u\201=\270\221c\275\022\365\266=\010Q,\275\346K\316=0Vt<\262\307\374\275~\203&\275\010\322\335<\200p\224\273\305\342\t>0K!\275\010\273\007\276\010*N\274\302\257\375\275\240QH\275\236\264\035\275`\307\334<e\265\332\275\346\033\326=x\304\231\275\343\245\227\2759\246\002>\274\326\266=\231\267\215\275\004\004\236=\220\361G\274\226^\226=\020\n\035\275\322-\001\276\026\2776\275\000w4:\370[\177=\000L\270\273\000/\312;\370\024\237\274\304@\320\275\352\367\341\275\002\260\230\275\000\265\206\273@Ou;\222\004C\275\\\214\t=,\345\306\275\3506\333<\3118\002\276D\006\311=\354]\211\274\200\365\360:\374\323H=0\262b=\356d\264=\320-j\274(\342\200\274\362\010\211\275\300\326\364<\006\314\016\275\244\n\355\275$\"\272\275 \227\207=\202\210\\\275b\317\005\275\032\036\216\275\310\004,=q\371\003\276\200\300\355:\204\014\341=\324\334]\275\241;\001>\370\257\223<l\254\236=\254\217\315=F\242\325\275\206n\360\275\252V}\275\206=\314\275\300\200\306\274\036,O\275\016!\253\275D\225\303\275\310\311~=\320%\036<\270n\204=\240\331\202\273\300\306u<\026\014\365=)\224\001>\202$\010\276\010\307^=\230a\232<\030>B=B\312\237=W\377\005\276\260\314\036\274\300\372\361<zH\022\275>W*\275\206\206\233\275\014\247\005\276\352\220\341=\301\027\300\275\200\266J=\034-\305=\030w\243<d\033\313\274 t\006\276\264?\234=\200\037\307\273hg\251\275\244\366\354\274o:\366\275\200\270\355:\000\320|8\334\366\035\275\212\031\375\275e6\235\2756\316\345=\014\017J\275\313H\317\275\310%a=\024\033\327\274\214F\301=Q\'\001>\242\213\211=P\213\205=\203\331\271\275\225\242\003\276\274\256\212\275\007d\t\276\000\224\321\272\267\006\t\276#\177\210\275\022\337z\275\304\025\334=\304h==RS\316=TMV\275\224\211\310=\220n\262\275P3\261=\276\r\007\276\232l\304=E0\333\275\306p\377=\025Y\n\276\340E\200\273f\204\316=|\336\304\275\017\004\007>\224\271\314\275@e\021\274n\220\332=p-4=\361q\302\275\350\0346=x\240\013\276&\033\275=$c\024\275\260:\236=X\216\307=\034t\033=\266\334\002\276\232\310\302=t\326\220\274\360\200\320\275\3349\304\274\304\342\374\275\362\246\277=\210\265\261\275\260\210\323\275l\3010=\264\333\273=\321\203\361\275x<\311<X\204\365\275,\300@=\000\034*9\226\346y\275\n\241\372=D\346\305=8\0060=d\322\035=\200(\312=`S\373<\004\031\343\275\340|+<\034|\203=\224\2062=\313\315\222\275P|\365<6\324\372=\2729/\275\314e)=:\177\270=\3763\367\275TVC\2750]\330<^\027\366=\034s!=\372\232\325\275P\003\254\274\224\227\252\274\340a\223;\276\003\300=\224`\303\275\260\001&<\326p\275=Q\220\204\275\324\314\362\274\036c\256=-?\263\275t1\243=\250\220\355\275\217\003\013>\330\223\310<3X\322\275\216Hq\275\27055=~K\353=\000\244i\2720|\263\274\237H\001>2H\276=dUH=\2400\363\274\330\327R=\265\345\367\275\000\313,<\340&\355;.\320\254\275X\355\354<\240\363~=`-\\<8\037\237<\214\320[=\300\335\003;\000\304\031<\216v\357=\246\300\352=v\204\335=D\310\276=jqa\275(\000\245=\337\217\010>\364\371\236=\200K\225:\200\000\224\274n\325\250=&\206\312\275 3M<\350\014\210\275~\274\n\276H\315\272=\220(f=@\273\036\275\260\311\032\274\200Z{<P\356\226<,:\206\275\236\272\334=\363R\305\275\224\\+=\\\235%=\264\260\304=\301\310\005>4\032\013\276\006+\346=N\304\347=\235K\010>\222\310\323=\362\367\002\275T\006k=\022L{\275x0\302\275\364A{=\036\264\360=\356\035\350=*\333\245=\210\025\322<l\256\303=\361a\003>r\334\010\275+V\004\276|\236\027=\000\213\325:\244,h=\3524\253=t\037\270\275@A\357\273\246\250\332\275\242\251\237=\221\364\372\2754\244\325=\203?\000\276\200\254\374\272D?\343=\260c\336=S\266\271\2755\336\t\2760\246\016=@\\\200\274\306m\246=d\r\203\275\223\316\010>\000\306\313:>V\354\275\3705\205<X@C\274\300\2553;\000C\304:^R\221=\344\350\000=N\004i\275\300\\\263\273\273}\t>\200J7\275\326\211\t\275\2126\276= }Y<P-\271\2740L\022<\212\314\204\275\267\241\271\275x\022\216\274\272\220\347=\300\031`\273\220\025\033<\020Td\274@\030\032\274\264W!=p\237\362\275`{\200;\251u\006>%\\\327\2757D\004\276\2522\225\275\"6\377=\300vH=\271\360\221\275\\\371\007=\200*\276:B\327\221=hR0=\240\252\311\273\006\337\345\275\2117\013>v\326e\275@H\247\275\020\312\013=fH\323=\314\335\317=\336\302\246=\244\302\010\275\226\017\260=\330%\346\275\352\302\037\275\306T\253=\371G\224\275Z\366\361=\253\256\010>`\255A=>\325\373=\000ai\275(b\242\275\300T\377<<\363\035=uV\001>)d\272\275\200\245\303:\224&\361\275\344\274\021\275\216\232\367=\210\007\304\275\360m\326\274Z\360\001\276\000\321\006\273l\n\377\275(\266\305=\340q\325=\314\0017=x\276p\274\312\t\272=h\235J\274\220G\333=\204l\"\275\014\210\300\274\252t\370=\332G\302=2\323\006\276\300\007\245\273\026j\217\275\032\323\225\275z\251\357\275\230g`\274<k\235\275Z!\n\276,@\272\275V\207\340=\000\2379=`l\334;\222\020\356= \256B=T\212\032\275\000\336\304<>G\333=\2303\236\274\256\232\201=\260\r\265=\240\036\222;\303\200\010>5n\004>\364\344\202=$\343\244=0\340\023<\240{\250= \241u<j\241\314=L^\200= \226\326=\000\000\2245\273\241\247\275`\274\247;\262\326\251=\210\244\000\276\324\245\253\275I_\006>@\2034<D\374\226\274 ]/<&\232\365=NO\346\275\030#\303\275\360\332\036\274\304\355J=\260p\300=\370\274C\275\250\274\267=\240\205\251;z;\375=x\244\322\275L\355\232=\310\202\'\275P+\340=\244\014\305\275\203.\005>\300t\332\2739)\000>\340c\376;\264\255\267=\313I\n>\000\206\022\275\232a\353\275\240\360\304;\214&Z=\256\270\355=`s\004\276\325\343\002>d\323N\275\227x\003>\200\234\366\272\204c\307=\220\'\343\274, \220=j\317\212=Q_\217\275|+^=\020<o=\340\3328\275\360\375\266\275\317\342\007>\000\377\362\274\224\220\327\275\374y\206=x2\025=\364K>=0\032\214\274f\363\361=\314\365T=\031\214\205\275.2&\2755I\001\276\000\275\000\273 \327\222\275\366\263H\275ZJ\002\276p6\032\274\2340\324\275\262\243\361=\027\354\213\275\001\216\224\275\223]\006\276\000\310\204;\250\302\203\274\260\316M\274\202\261\330=U\311\t>\300\227Q<\004\361\323=l\rh=\025\033\013>\016\235\364=\310z\352<\240\241\356;\300p\247=6\242F\275\224e\265=\371y\345\275\014\314\323\274\320\201\"\274\244w)\275\t\001\003>\000\202\244=0j\365<p1==l\335\375\275/8\000>,\267\032=@Ti\275\210\333\231\274RG\010\276\2665\010\276@\246\022<\370\036\222\275Jy\340=Z\207\371=:\333\265\275\370\247\225=\240\246\246\273h n\274\350z\200\275M\361\220\275\021?\210\275\234\255\250=PK\242=4#k=Y2\005>T\327\321\274\275T\002>\246\274\373=P\3425\274\230)\230\274\324\226\037=\364\346\315=\346rB\275z-\322=4\370\241=`\372\357;\240\260\317<Vf\370=\347\333\003>\344\037^\275\254\324\362\275d\216\307=\372\251\200=\207#\000\276\223+\212\2752z&\275P\336\275=\220\243\336<\000\231\314:\244\233\275\275\244\217\215=@\335\316= 8\252\273D\256\215=\370\206\230<\354K\204\274PG\r\274N\300\334\275\320D\355\275v\027\334\275\315\356\t>2N\277=\225\350\006\276\325\302\t>\340\3312<6\357\324=\350z\235=\222\247\216\275T_]=\310k\341\274\374y\265=\200C\320\272\354\361\331=h\t\313\274\026\230\t\275\200.\341;\230\202\370<\342\257\014\275nQ\234\275\030Pz\275\340\030q=\350\207\303=\330\217\220<\305(\006>0\200\036\275\360\344\252\275e\313\001\276\000\002\373\272@\023\027<(\327\362<\366\300\252=\222\336\256\275\226\352\276=\371u\004>\204Yu=\310uR=\320^\023<\364\352\317=\350qd=\316\032\210=\230\362\231=\342\206\270=\014~\262=\350\316\257=\006\320\247\275\340\033\\<\\\304\337\27480\010\275\352\205S\275\234\365\271\275\250\375a\274[6\371\275^\254\360=\201\253\341\275\264,\264=\370Z\237<\332\211>\275\376M~\275\346\267\364\275\330+\340=\256\035\004\275\"\222\314\275\303P\305\275.\022\213\275\314\305\345=\000ec\272p6t\274$()=@R|=f\322\217=\300\312\020;9Z\006>f)\004\275]\366\314\275,t\305=\030\351\320<?,\004\276\210e\t\276\334-\354\275P@\211<`\357\272\275=\205\013\276\216\322I\275\264\300\344\275\203\014\004>\034I\300= m\024\275p\204\263\275=\333\005>\032n\347=P\242\003<,\031\314=\222(\301\275P\033\014\275\210\262\264\274-\353\003>H\275\243<P\340\r\27400\"=P\323\000\274\342\245\325=\231 \216\275J\253\230\275L\324V=\364{\277\274\272d\273=@\2370\274\352\033\t\275\350\255\337=0r\363\275p\241\263\274\236`\346\275\250b\036\275*\nm\275\\\233\372\275\270\310,=po)\2748Y\033\275\032\332T\275LAm=\346y\230=\274w\265=\336\320\247=\223\354\001>\030^\306<l\246\366\2748\334\336\275T\270\365\274\0300\231=\360^{=\003\177\360\275\202\236\374\275:\303\220\275\010\372f\274\314:\355\274\310\205\230\275t\242\306\2758\311\237\275\020D\225=H\253\320=P\317\311\274\001\201\n>\220\223\205\274\2528\312\275\204\274\336=\014\203^\275>\266\372=\0000S<\032&\010\275l\375\037=p\313\201\275@U\274<_*\375\275\344\276\006\276\020\023\261=|0)\275 ^\235;\020\317\202\275\000\302\233\271\236\252,\275x\315X=\324M\230=pHC<\220X\301=\300\014\333;y3\272\275\217\213\004>\002\212\325=\234\307j\275\032\235y\275>\367\370=\364\210\255=\231\230\231\275\010Ga=\344\353c=\004\037l=\307\233\375\275\202\302\026\275 